-- begin_signature
-- rom_output_weight
-- end_signature
WIDTH=8;
DEPTH=512;

ADDRESS_RADIX=UNS;
DATA_RADIX=BIN;

CONTENT BEGIN
	511 :	XXXXXXXX;
	510 :	XXXXXXXX;
	509 :	XXXXXXXX;
	508 :	XXXXXXXX;
	507 :	XXXXXXXX;
	506 :	XXXXXXXX;
	505 :	XXXXXXXX;
	504 :	XXXXXXXX;
	503 :	XXXXXXXX;
	502 :	XXXXXXXX;
	501 :	XXXXXXXX;
	500 :	XXXXXXXX;
	499 :	XXXXXXXX;
	498 :	XXXXXXXX;
	497 :	XXXXXXXX;
	496 :	XXXXXXXX;
	495 :	XXXXXXXX;
	494 :	XXXXXXXX;
	493 :	XXXXXXXX;
	492 :	XXXXXXXX;
	491 :	XXXXXXXX;
	490 :	XXXXXXXX;
	489 :	XXXXXXXX;
	488 :	XXXXXXXX;
	487 :	XXXXXXXX;
	486 :	XXXXXXXX;
	485 :	XXXXXXXX;
	484 :	XXXXXXXX;
	483 :	XXXXXXXX;
	482 :	XXXXXXXX;
	481 :	XXXXXXXX;
	480 :	XXXXXXXX;
	479 :	XXXXXXXX;
	478 :	XXXXXXXX;
	477 :	XXXXXXXX;
	476 :	XXXXXXXX;
	475 :	XXXXXXXX;
	474 :	XXXXXXXX;
	473 :	XXXXXXXX;
	472 :	XXXXXXXX;
	471 :	XXXXXXXX;
	470 :	XXXXXXXX;
	469 :	XXXXXXXX;
	468 :	XXXXXXXX;
	467 :	XXXXXXXX;
	466 :	XXXXXXXX;
	465 :	XXXXXXXX;
	464 :	XXXXXXXX;
	463 :	XXXXXXXX;
	462 :	XXXXXXXX;
	461 :	XXXXXXXX;
	460 :	XXXXXXXX;
	459 :	XXXXXXXX;
	458 :	XXXXXXXX;
	457 :	XXXXXXXX;
	456 :	XXXXXXXX;
	455 :	XXXXXXXX;
	454 :	XXXXXXXX;
	453 :	XXXXXXXX;
	452 :	XXXXXXXX;
	451 :	XXXXXXXX;
	450 :	XXXXXXXX;
	449 :	XXXXXXXX;
	448 :	XXXXXXXX;
	447 :	XXXXXXXX;
	446 :	XXXXXXXX;
	445 :	XXXXXXXX;
	444 :	XXXXXXXX;
	443 :	XXXXXXXX;
	442 :	XXXXXXXX;
	441 :	XXXXXXXX;
	440 :	XXXXXXXX;
	439 :	XXXXXXXX;
	438 :	XXXXXXXX;
	437 :	XXXXXXXX;
	436 :	XXXXXXXX;
	435 :	XXXXXXXX;
	434 :	XXXXXXXX;
	433 :	XXXXXXXX;
	432 :	XXXXXXXX;
	431 :	XXXXXXXX;
	430 :	XXXXXXXX;
	429 :	XXXXXXXX;
	428 :	XXXXXXXX;
	427 :	XXXXXXXX;
	426 :	XXXXXXXX;
	425 :	XXXXXXXX;
	424 :	XXXXXXXX;
	423 :	XXXXXXXX;
	422 :	XXXXXXXX;
	421 :	XXXXXXXX;
	420 :	XXXXXXXX;
	419 :	XXXXXXXX;
	418 :	XXXXXXXX;
	417 :	XXXXXXXX;
	416 :	XXXXXXXX;
	415 :	XXXXXXXX;
	414 :	XXXXXXXX;
	413 :	XXXXXXXX;
	412 :	XXXXXXXX;
	411 :	XXXXXXXX;
	410 :	XXXXXXXX;
	409 :	XXXXXXXX;
	408 :	XXXXXXXX;
	407 :	XXXXXXXX;
	406 :	XXXXXXXX;
	405 :	XXXXXXXX;
	404 :	XXXXXXXX;
	403 :	XXXXXXXX;
	402 :	XXXXXXXX;
	401 :	XXXXXXXX;
	400 :	XXXXXXXX;
	399 :	XXXXXXXX;
	398 :	XXXXXXXX;
	397 :	XXXXXXXX;
	396 :	XXXXXXXX;
	395 :	XXXXXXXX;
	394 :	XXXXXXXX;
	393 :	XXXXXXXX;
	392 :	XXXXXXXX;
	391 :	XXXXXXXX;
	390 :	XXXXXXXX;
	389 :	XXXXXXXX;
	388 :	XXXXXXXX;
	387 :	XXXXXXXX;
	386 :	XXXXXXXX;
	385 :	XXXXXXXX;
	384 :	XXXXXXXX;
	383 :	XXXXXXXX;
	382 :	XXXXXXXX;
	381 :	XXXXXXXX;
	380 :	XXXXXXXX;
	379 :	XXXXXXXX;
	378 :	XXXXXXXX;
	377 :	XXXXXXXX;
	376 :	XXXXXXXX;
	375 :	XXXXXXXX;
	374 :	XXXXXXXX;
	373 :	XXXXXXXX;
	372 :	XXXXXXXX;
	371 :	XXXXXXXX;
	370 :	XXXXXXXX;
	369 :	XXXXXXXX;
	368 :	XXXXXXXX;
	367 :	XXXXXXXX;
	366 :	XXXXXXXX;
	365 :	XXXXXXXX;
	364 :	XXXXXXXX;
	363 :	XXXXXXXX;
	362 :	XXXXXXXX;
	361 :	XXXXXXXX;
	360 :	XXXXXXXX;
	359 :	XXXXXXXX;
	358 :	XXXXXXXX;
	357 :	XXXXXXXX;
	356 :	XXXXXXXX;
	355 :	XXXXXXXX;
	354 :	XXXXXXXX;
	353 :	XXXXXXXX;
	352 :	XXXXXXXX;
	351 :	XXXXXXXX;
	350 :	XXXXXXXX;
	349 :	XXXXXXXX;
	348 :	XXXXXXXX;
	347 :	XXXXXXXX;
	346 :	XXXXXXXX;
	345 :	XXXXXXXX;
	344 :	XXXXXXXX;
	343 :	XXXXXXXX;
	342 :	XXXXXXXX;
	341 :	XXXXXXXX;
	340 :	XXXXXXXX;
	339 :	XXXXXXXX;
	338 :	XXXXXXXX;
	337 :	XXXXXXXX;
	336 :	XXXXXXXX;
	335 :	XXXXXXXX;
	334 :	XXXXXXXX;
	333 :	XXXXXXXX;
	332 :	XXXXXXXX;
	331 :	XXXXXXXX;
	330 :	XXXXXXXX;
	329 :	XXXXXXXX;
	328 :	XXXXXXXX;
	327 :	XXXXXXXX;
	326 :	XXXXXXXX;
	325 :	XXXXXXXX;
	324 :	XXXXXXXX;
	323 :	XXXXXXXX;
	322 :	XXXXXXXX;
	321 :	XXXXXXXX;
	320 :	XXXXXXXX;
	319 :	11001010;
	318 :	00110111;
	317 :	01010001;
	316 :	11011011;
	315 :	10110001;
	314 :	11000100;
	313 :	11000010;
	312 :	00101010;
	311 :	10110110;
	310 :	11100110;
	309 :	11001110;
	308 :	11011111;
	307 :	00001000;
	306 :	11111000;
	305 :	11010010;
	304 :	00000011;
	303 :	00001011;
	302 :	11110011;
	301 :	10011011;
	300 :	11011110;
	299 :	00101100;
	298 :	00001011;
	297 :	11011110;
	296 :	11010001;
	295 :	00000011;
	294 :	00100000;
	293 :	11101100;
	292 :	11110110;
	291 :	00001100;
	290 :	10111101;
	289 :	00001000;
	288 :	11000001;
	287 :	11111010;
	286 :	10100001;
	285 :	11011111;
	284 :	00000110;
	283 :	11000000;
	282 :	10110111;
	281 :	11100010;
	280 :	11001101;
	279 :	11111000;
	278 :	00011011;
	277 :	11010100;
	276 :	00001110;
	275 :	10101111;
	274 :	00101101;
	273 :	10111000;
	272 :	11111111;
	271 :	00110101;
	270 :	00010101;
	269 :	00110101;
	268 :	11001100;
	267 :	00001100;
	266 :	11110111;
	265 :	10111000;
	264 :	11001100;
	263 :	00001010;
	262 :	10111010;
	261 :	11010000;
	260 :	00010111;
	259 :	10110101;
	258 :	10100111;
	257 :	00000101;
	256 :	11011101;
	255 :	10101000;
	254 :	00111101;
	253 :	00001111;
	252 :	11100100;
	251 :	00001111;
	250 :	00100100;
	249 :	00001100;
	248 :	11111000;
	247 :	11010111;
	246 :	11100101;
	245 :	11110111;
	244 :	00000011;
	243 :	00000010;
	242 :	11000001;
	241 :	00101101;
	240 :	11001011;
	239 :	00001101;
	238 :	11111001;
	237 :	00101011;
	236 :	00111100;
	235 :	10100010;
	234 :	10111100;
	233 :	11101010;
	232 :	11000010;
	231 :	11110110;
	230 :	00101100;
	229 :	11111010;
	228 :	00010100;
	227 :	11011110;
	226 :	00010100;
	225 :	11000111;
	224 :	00111100;
	223 :	00000010;
	222 :	11000111;
	221 :	11010101;
	220 :	10101011;
	219 :	00011100;
	218 :	10111111;
	217 :	11011010;
	216 :	00110011;
	215 :	00010100;
	214 :	00001110;
	213 :	11010101;
	212 :	11010010;
	211 :	00101101;
	210 :	00000101;
	209 :	00010111;
	208 :	00010010;
	207 :	00000100;
	206 :	11101100;
	205 :	10111011;
	204 :	11100010;
	203 :	11111010;
	202 :	11100100;
	201 :	11101110;
	200 :	00101000;
	199 :	11001010;
	198 :	11001110;
	197 :	01001010;
	196 :	10110111;
	195 :	11011001;
	194 :	00011000;
	193 :	11101011;
	192 :	11110001;
	191 :	11110101;
	190 :	11100101;
	189 :	11100001;
	188 :	11100001;
	187 :	11010101;
	186 :	11001101;
	185 :	00011000;
	184 :	11001010;
	183 :	11110001;
	182 :	10101111;
	181 :	00111110;
	180 :	00001000;
	179 :	01001110;
	178 :	00001001;
	177 :	11110110;
	176 :	01000101;
	175 :	10101011;
	174 :	11011101;
	173 :	00010111;
	172 :	10111110;
	171 :	00010101;
	170 :	10100100;
	169 :	11001000;
	168 :	00010111;
	167 :	00000010;
	166 :	00001111;
	165 :	11101100;
	164 :	00001100;
	163 :	00000101;
	162 :	01011010;
	161 :	11111110;
	160 :	11100011;
	159 :	00100100;
	158 :	01001100;
	157 :	10010101;
	156 :	11001001;
	155 :	00101110;
	154 :	11100100;
	153 :	11001111;
	152 :	11001011;
	151 :	00011000;
	150 :	11101010;
	149 :	00100111;
	148 :	11100000;
	147 :	11100001;
	146 :	00011101;
	145 :	11110110;
	144 :	11111000;
	143 :	00010010;
	142 :	11111000;
	141 :	10111110;
	140 :	11100101;
	139 :	10101100;
	138 :	11111110;
	137 :	11101000;
	136 :	10111001;
	135 :	11100111;
	134 :	00110101;
	133 :	11010100;
	132 :	00000111;
	131 :	00010111;
	130 :	11011000;
	129 :	11111101;
	128 :	11100101;
	127 :	00000111;
	126 :	11010011;
	125 :	11101011;
	124 :	00100010;
	123 :	11101010;
	122 :	00000100;
	121 :	11010010;
	120 :	11111101;
	119 :	11101010;
	118 :	10110100;
	117 :	11101101;
	116 :	00011110;
	115 :	11011000;
	114 :	10111001;
	113 :	10101111;
	112 :	10011001;
	111 :	10101110;
	110 :	00001011;
	109 :	11101110;
	108 :	11001010;
	107 :	00001101;
	106 :	00011001;
	105 :	00111100;
	104 :	00001011;
	103 :	00011101;
	102 :	11110011;
	101 :	11001100;
	100 :	11111111;
	99 :	00110111;
	98 :	11110011;
	97 :	11100101;
	96 :	00101011;
	95 :	00000010;
	94 :	11110011;
	93 :	11101110;
	92 :	01001001;
	91 :	11110000;
	90 :	00011100;
	89 :	00000011;
	88 :	11101101;
	87 :	11111110;
	86 :	00100001;
	85 :	11101101;
	84 :	10011101;
	83 :	10111101;
	82 :	00001111;
	81 :	00100000;
	80 :	11100011;
	79 :	11000111;
	78 :	11100110;
	77 :	00001011;
	76 :	00011011;
	75 :	00000101;
	74 :	00010110;
	73 :	00101100;
	72 :	00000001;
	71 :	10111111;
	70 :	11100101;
	69 :	11000010;
	68 :	11001110;
	67 :	11000111;
	66 :	11010110;
	65 :	10101111;
	64 :	11011110;
	63 :	11001011;
	62 :	11010100;
	61 :	11110011;
	60 :	00011101;
	59 :	11011001;
	58 :	11111000;
	57 :	00101010;
	56 :	00000011;
	55 :	00010110;
	54 :	11011110;
	53 :	00100101;
	52 :	00010110;
	51 :	00011101;
	50 :	00010011;
	49 :	11110110;
	48 :	11001010;
	47 :	00100101;
	46 :	10011011;
	45 :	11010111;
	44 :	11000110;
	43 :	00001010;
	42 :	10111111;
	41 :	00011010;
	40 :	11001000;
	39 :	10111011;
	38 :	11010110;
	37 :	00110101;
	36 :	00010110;
	35 :	00011001;
	34 :	11100110;
	33 :	11101011;
	32 :	00001101;
	31 :	00001001;
	30 :	11011001;
	29 :	00011011;
	28 :	11011101;
	27 :	00100110;
	26 :	00100000;
	25 :	00000001;
	24 :	11000110;
	23 :	11000111;
	22 :	00010100;
	21 :	11101000;
	20 :	11101111;
	19 :	11000110;
	18 :	10110101;
	17 :	11001101;
	16 :	00001110;
	15 :	11001000;
	14 :	11100111;
	13 :	00001111;
	12 :	00100111;
	11 :	10110100;
	10 :	11111110;
	9 :	10111111;
	8 :	00010101;
	7 :	00010111;
	6 :	11010001;
	5 :	11100110;
	4 :	10100100;
	3 :	11011001;
	2 :	00001110;
	1 :	00010110;
	0 :	11000011;
END;
