-- begin_signature
-- rom_hidden_weight
-- end_signature
WIDTH=8;
DEPTH=32768;

ADDRESS_RADIX=UNS;
DATA_RADIX=BIN;

CONTENT BEGIN
	32767 :	XXXXXXXX;
	32766 :	XXXXXXXX;
	32765 :	XXXXXXXX;
	32764 :	XXXXXXXX;
	32763 :	XXXXXXXX;
	32762 :	XXXXXXXX;
	32761 :	XXXXXXXX;
	32760 :	XXXXXXXX;
	32759 :	XXXXXXXX;
	32758 :	XXXXXXXX;
	32757 :	XXXXXXXX;
	32756 :	XXXXXXXX;
	32755 :	XXXXXXXX;
	32754 :	XXXXXXXX;
	32753 :	XXXXXXXX;
	32752 :	XXXXXXXX;
	32751 :	XXXXXXXX;
	32750 :	XXXXXXXX;
	32749 :	XXXXXXXX;
	32748 :	XXXXXXXX;
	32747 :	XXXXXXXX;
	32746 :	XXXXXXXX;
	32745 :	XXXXXXXX;
	32744 :	XXXXXXXX;
	32743 :	XXXXXXXX;
	32742 :	XXXXXXXX;
	32741 :	XXXXXXXX;
	32740 :	XXXXXXXX;
	32739 :	XXXXXXXX;
	32738 :	XXXXXXXX;
	32737 :	XXXXXXXX;
	32736 :	XXXXXXXX;
	32735 :	XXXXXXXX;
	32734 :	XXXXXXXX;
	32733 :	XXXXXXXX;
	32732 :	XXXXXXXX;
	32731 :	XXXXXXXX;
	32730 :	XXXXXXXX;
	32729 :	XXXXXXXX;
	32728 :	XXXXXXXX;
	32727 :	XXXXXXXX;
	32726 :	XXXXXXXX;
	32725 :	XXXXXXXX;
	32724 :	XXXXXXXX;
	32723 :	XXXXXXXX;
	32722 :	XXXXXXXX;
	32721 :	XXXXXXXX;
	32720 :	XXXXXXXX;
	32719 :	XXXXXXXX;
	32718 :	XXXXXXXX;
	32717 :	XXXXXXXX;
	32716 :	XXXXXXXX;
	32715 :	XXXXXXXX;
	32714 :	XXXXXXXX;
	32713 :	XXXXXXXX;
	32712 :	XXXXXXXX;
	32711 :	XXXXXXXX;
	32710 :	XXXXXXXX;
	32709 :	XXXXXXXX;
	32708 :	XXXXXXXX;
	32707 :	XXXXXXXX;
	32706 :	XXXXXXXX;
	32705 :	XXXXXXXX;
	32704 :	XXXXXXXX;
	32703 :	XXXXXXXX;
	32702 :	XXXXXXXX;
	32701 :	XXXXXXXX;
	32700 :	XXXXXXXX;
	32699 :	XXXXXXXX;
	32698 :	XXXXXXXX;
	32697 :	XXXXXXXX;
	32696 :	XXXXXXXX;
	32695 :	XXXXXXXX;
	32694 :	XXXXXXXX;
	32693 :	XXXXXXXX;
	32692 :	XXXXXXXX;
	32691 :	XXXXXXXX;
	32690 :	XXXXXXXX;
	32689 :	XXXXXXXX;
	32688 :	XXXXXXXX;
	32687 :	XXXXXXXX;
	32686 :	XXXXXXXX;
	32685 :	XXXXXXXX;
	32684 :	XXXXXXXX;
	32683 :	XXXXXXXX;
	32682 :	XXXXXXXX;
	32681 :	XXXXXXXX;
	32680 :	XXXXXXXX;
	32679 :	XXXXXXXX;
	32678 :	XXXXXXXX;
	32677 :	XXXXXXXX;
	32676 :	XXXXXXXX;
	32675 :	XXXXXXXX;
	32674 :	XXXXXXXX;
	32673 :	XXXXXXXX;
	32672 :	XXXXXXXX;
	32671 :	XXXXXXXX;
	32670 :	XXXXXXXX;
	32669 :	XXXXXXXX;
	32668 :	XXXXXXXX;
	32667 :	XXXXXXXX;
	32666 :	XXXXXXXX;
	32665 :	XXXXXXXX;
	32664 :	XXXXXXXX;
	32663 :	XXXXXXXX;
	32662 :	XXXXXXXX;
	32661 :	XXXXXXXX;
	32660 :	XXXXXXXX;
	32659 :	XXXXXXXX;
	32658 :	XXXXXXXX;
	32657 :	XXXXXXXX;
	32656 :	XXXXXXXX;
	32655 :	XXXXXXXX;
	32654 :	XXXXXXXX;
	32653 :	XXXXXXXX;
	32652 :	XXXXXXXX;
	32651 :	XXXXXXXX;
	32650 :	XXXXXXXX;
	32649 :	XXXXXXXX;
	32648 :	XXXXXXXX;
	32647 :	XXXXXXXX;
	32646 :	XXXXXXXX;
	32645 :	XXXXXXXX;
	32644 :	XXXXXXXX;
	32643 :	XXXXXXXX;
	32642 :	XXXXXXXX;
	32641 :	XXXXXXXX;
	32640 :	XXXXXXXX;
	32639 :	XXXXXXXX;
	32638 :	XXXXXXXX;
	32637 :	XXXXXXXX;
	32636 :	XXXXXXXX;
	32635 :	XXXXXXXX;
	32634 :	XXXXXXXX;
	32633 :	XXXXXXXX;
	32632 :	XXXXXXXX;
	32631 :	XXXXXXXX;
	32630 :	XXXXXXXX;
	32629 :	XXXXXXXX;
	32628 :	XXXXXXXX;
	32627 :	XXXXXXXX;
	32626 :	XXXXXXXX;
	32625 :	XXXXXXXX;
	32624 :	XXXXXXXX;
	32623 :	XXXXXXXX;
	32622 :	XXXXXXXX;
	32621 :	XXXXXXXX;
	32620 :	XXXXXXXX;
	32619 :	XXXXXXXX;
	32618 :	XXXXXXXX;
	32617 :	XXXXXXXX;
	32616 :	XXXXXXXX;
	32615 :	XXXXXXXX;
	32614 :	XXXXXXXX;
	32613 :	XXXXXXXX;
	32612 :	XXXXXXXX;
	32611 :	XXXXXXXX;
	32610 :	XXXXXXXX;
	32609 :	XXXXXXXX;
	32608 :	XXXXXXXX;
	32607 :	XXXXXXXX;
	32606 :	XXXXXXXX;
	32605 :	XXXXXXXX;
	32604 :	XXXXXXXX;
	32603 :	XXXXXXXX;
	32602 :	XXXXXXXX;
	32601 :	XXXXXXXX;
	32600 :	XXXXXXXX;
	32599 :	XXXXXXXX;
	32598 :	XXXXXXXX;
	32597 :	XXXXXXXX;
	32596 :	XXXXXXXX;
	32595 :	XXXXXXXX;
	32594 :	XXXXXXXX;
	32593 :	XXXXXXXX;
	32592 :	XXXXXXXX;
	32591 :	XXXXXXXX;
	32590 :	XXXXXXXX;
	32589 :	XXXXXXXX;
	32588 :	XXXXXXXX;
	32587 :	XXXXXXXX;
	32586 :	XXXXXXXX;
	32585 :	XXXXXXXX;
	32584 :	XXXXXXXX;
	32583 :	XXXXXXXX;
	32582 :	XXXXXXXX;
	32581 :	XXXXXXXX;
	32580 :	XXXXXXXX;
	32579 :	XXXXXXXX;
	32578 :	XXXXXXXX;
	32577 :	XXXXXXXX;
	32576 :	XXXXXXXX;
	32575 :	XXXXXXXX;
	32574 :	XXXXXXXX;
	32573 :	XXXXXXXX;
	32572 :	XXXXXXXX;
	32571 :	XXXXXXXX;
	32570 :	XXXXXXXX;
	32569 :	XXXXXXXX;
	32568 :	XXXXXXXX;
	32567 :	XXXXXXXX;
	32566 :	XXXXXXXX;
	32565 :	XXXXXXXX;
	32564 :	XXXXXXXX;
	32563 :	XXXXXXXX;
	32562 :	XXXXXXXX;
	32561 :	XXXXXXXX;
	32560 :	XXXXXXXX;
	32559 :	XXXXXXXX;
	32558 :	XXXXXXXX;
	32557 :	XXXXXXXX;
	32556 :	XXXXXXXX;
	32555 :	XXXXXXXX;
	32554 :	XXXXXXXX;
	32553 :	XXXXXXXX;
	32552 :	XXXXXXXX;
	32551 :	XXXXXXXX;
	32550 :	XXXXXXXX;
	32549 :	XXXXXXXX;
	32548 :	XXXXXXXX;
	32547 :	XXXXXXXX;
	32546 :	XXXXXXXX;
	32545 :	XXXXXXXX;
	32544 :	XXXXXXXX;
	32543 :	XXXXXXXX;
	32542 :	XXXXXXXX;
	32541 :	XXXXXXXX;
	32540 :	XXXXXXXX;
	32539 :	XXXXXXXX;
	32538 :	XXXXXXXX;
	32537 :	XXXXXXXX;
	32536 :	XXXXXXXX;
	32535 :	XXXXXXXX;
	32534 :	XXXXXXXX;
	32533 :	XXXXXXXX;
	32532 :	XXXXXXXX;
	32531 :	XXXXXXXX;
	32530 :	XXXXXXXX;
	32529 :	XXXXXXXX;
	32528 :	XXXXXXXX;
	32527 :	00000000;
	32526 :	00000000;
	32525 :	00000000;
	32524 :	00000000;
	32523 :	00000000;
	32522 :	00000000;
	32521 :	00000000;
	32520 :	00000000;
	32519 :	00000000;
	32518 :	00000000;
	32517 :	00000000;
	32516 :	00000000;
	32515 :	00000000;
	32514 :	00000000;
	32513 :	00000000;
	32512 :	00000000;
	32511 :	00000000;
	32510 :	00000000;
	32509 :	00000000;
	32508 :	00000000;
	32507 :	00000000;
	32506 :	00000000;
	32505 :	00000000;
	32504 :	00000000;
	32503 :	00000000;
	32502 :	00000000;
	32501 :	00000000;
	32500 :	00000000;
	32499 :	00000000;
	32498 :	00000000;
	32497 :	00000000;
	32496 :	00000000;
	32495 :	00000000;
	32494 :	00000000;
	32493 :	00000000;
	32492 :	00000000;
	32491 :	00000001;
	32490 :	00000000;
	32489 :	00000001;
	32488 :	00000000;
	32487 :	00000000;
	32486 :	00000000;
	32485 :	00000001;
	32484 :	00000001;
	32483 :	00000001;
	32482 :	00000001;
	32481 :	00000001;
	32480 :	00000001;
	32479 :	00000100;
	32478 :	00000001;
	32477 :	00000000;
	32476 :	00000000;
	32475 :	00000000;
	32474 :	00000000;
	32473 :	00000000;
	32472 :	00000000;
	32471 :	00000000;
	32470 :	00000000;
	32469 :	00000000;
	32468 :	00000001;
	32467 :	00000000;
	32466 :	00000000;
	32465 :	00000000;
	32464 :	00000001;
	32463 :	00000011;
	32462 :	00000001;
	32461 :	00000101;
	32460 :	00000011;
	32459 :	00000001;
	32458 :	00000000;
	32457 :	00000010;
	32456 :	00000001;
	32455 :	00000010;
	32454 :	00000011;
	32453 :	00000100;
	32452 :	00000111;
	32451 :	00000111;
	32450 :	00000100;
	32449 :	00000010;
	32448 :	00000000;
	32447 :	00000000;
	32446 :	00000000;
	32445 :	00000000;
	32444 :	00000000;
	32443 :	00000000;
	32442 :	00000000;
	32441 :	00000000;
	32440 :	00000001;
	32439 :	00000000;
	32438 :	00000001;
	32437 :	00000011;
	32436 :	00000101;
	32435 :	00001001;
	32434 :	00001100;
	32433 :	00000110;
	32432 :	00000111;
	32431 :	00000110;
	32430 :	00001000;
	32429 :	00000111;
	32428 :	00000100;
	32427 :	00000110;
	32426 :	00000111;
	32425 :	00001011;
	32424 :	00001011;
	32423 :	00001101;
	32422 :	00001110;
	32421 :	00000101;
	32420 :	00000010;
	32419 :	00000000;
	32418 :	00000000;
	32417 :	00000000;
	32416 :	00000000;
	32415 :	00000000;
	32414 :	00000000;
	32413 :	11111111;
	32412 :	00000001;
	32411 :	00000010;
	32410 :	00000110;
	32409 :	00001010;
	32408 :	00001101;
	32407 :	00010100;
	32406 :	00010100;
	32405 :	00001001;
	32404 :	00010000;
	32403 :	00001111;
	32402 :	00000110;
	32401 :	00001011;
	32400 :	00000110;
	32399 :	00000110;
	32398 :	00000011;
	32397 :	00001110;
	32396 :	00001101;
	32395 :	00010111;
	32394 :	00010010;
	32393 :	00001000;
	32392 :	00000001;
	32391 :	00000000;
	32390 :	00000000;
	32389 :	00000000;
	32388 :	00000000;
	32387 :	11111111;
	32386 :	11111111;
	32385 :	11111111;
	32384 :	00000000;
	32383 :	00000100;
	32382 :	00001001;
	32381 :	00001111;
	32380 :	00010010;
	32379 :	00011011;
	32378 :	00011100;
	32377 :	00011010;
	32376 :	00010101;
	32375 :	00001101;
	32374 :	00001000;
	32373 :	00000110;
	32372 :	11111011;
	32371 :	11111000;
	32370 :	11111101;
	32369 :	00000111;
	32368 :	00000011;
	32367 :	00001110;
	32366 :	00010010;
	32365 :	00001000;
	32364 :	00000001;
	32363 :	00000010;
	32362 :	00000000;
	32361 :	00000000;
	32360 :	00000000;
	32359 :	00000000;
	32358 :	11111111;
	32357 :	11110111;
	32356 :	11111110;
	32355 :	00000101;
	32354 :	00001101;
	32353 :	00010000;
	32352 :	00011010;
	32351 :	00100110;
	32350 :	00011010;
	32349 :	00010110;
	32348 :	00000101;
	32347 :	11111111;
	32346 :	11111110;
	32345 :	11111101;
	32344 :	11110101;
	32343 :	11101011;
	32342 :	11110010;
	32341 :	11111111;
	32340 :	11111111;
	32339 :	00000100;
	32338 :	00001100;
	32337 :	00000110;
	32336 :	11111111;
	32335 :	00000010;
	32334 :	00000000;
	32333 :	00000000;
	32332 :	00000000;
	32331 :	00000000;
	32330 :	11111110;
	32329 :	11110110;
	32328 :	11111111;
	32327 :	00001110;
	32326 :	00010111;
	32325 :	00011001;
	32324 :	00011100;
	32323 :	00011000;
	32322 :	00010011;
	32321 :	00001111;
	32320 :	11111101;
	32319 :	11110010;
	32318 :	11110001;
	32317 :	11110000;
	32316 :	11100110;
	32315 :	11100100;
	32314 :	11111101;
	32313 :	11111111;
	32312 :	00000100;
	32311 :	11111101;
	32310 :	00001011;
	32309 :	00010001;
	32308 :	11111101;
	32307 :	00000011;
	32306 :	00000001;
	32305 :	00000000;
	32304 :	00000000;
	32303 :	00000000;
	32302 :	11110111;
	32301 :	11110100;
	32300 :	11111011;
	32299 :	00001110;
	32298 :	00011010;
	32297 :	00011111;
	32296 :	00100010;
	32295 :	00010101;
	32294 :	00001100;
	32293 :	00001000;
	32292 :	11111110;
	32291 :	11110100;
	32290 :	11110110;
	32289 :	11111000;
	32288 :	11111000;
	32287 :	11110000;
	32286 :	00000011;
	32285 :	00000111;
	32284 :	11111010;
	32283 :	11101101;
	32282 :	00000100;
	32281 :	00001110;
	32280 :	00000010;
	32279 :	00000101;
	32278 :	00000001;
	32277 :	00000000;
	32276 :	00000000;
	32275 :	11111101;
	32274 :	11110010;
	32273 :	11101011;
	32272 :	11111110;
	32271 :	00001010;
	32270 :	00010100;
	32269 :	00011100;
	32268 :	00010101;
	32267 :	00010011;
	32266 :	11111111;
	32265 :	11111110;
	32264 :	00000011;
	32263 :	11110000;
	32262 :	11111001;
	32261 :	11110111;
	32260 :	11101100;
	32259 :	11110101;
	32258 :	11111110;
	32257 :	11111101;
	32256 :	11110001;
	32255 :	11101011;
	32254 :	00000111;
	32253 :	00011010;
	32252 :	00000010;
	32251 :	00000110;
	32250 :	00000010;
	32249 :	00000000;
	32248 :	00000000;
	32247 :	11111101;
	32246 :	11101111;
	32245 :	11100100;
	32244 :	00000000;
	32243 :	00001100;
	32242 :	00010010;
	32241 :	00000111;
	32240 :	00000011;
	32239 :	00000101;
	32238 :	11111001;
	32237 :	00000010;
	32236 :	11111101;
	32235 :	00000001;
	32234 :	11111010;
	32233 :	11110111;
	32232 :	11110111;
	32231 :	11111010;
	32230 :	11110110;
	32229 :	11110101;
	32228 :	11101000;
	32227 :	11100110;
	32226 :	00000001;
	32225 :	00100101;
	32224 :	00000101;
	32223 :	00000110;
	32222 :	00000001;
	32221 :	00000000;
	32220 :	00000000;
	32219 :	11111101;
	32218 :	11101100;
	32217 :	11011101;
	32216 :	00000001;
	32215 :	00000100;
	32214 :	00001000;
	32213 :	00001110;
	32212 :	00001110;
	32211 :	00001010;
	32210 :	00001011;
	32209 :	00000110;
	32208 :	11111000;
	32207 :	11111101;
	32206 :	00000100;
	32205 :	11111101;
	32204 :	00000011;
	32203 :	11110100;
	32202 :	11101001;
	32201 :	11110100;
	32200 :	11101011;
	32199 :	11100111;
	32198 :	00001001;
	32197 :	00101100;
	32196 :	00001111;
	32195 :	00000101;
	32194 :	11111111;
	32193 :	00000000;
	32192 :	00000000;
	32191 :	11111101;
	32190 :	11101000;
	32189 :	11100010;
	32188 :	11111000;
	32187 :	00000100;
	32186 :	00010000;
	32185 :	00010100;
	32184 :	00010001;
	32183 :	00000111;
	32182 :	00000101;
	32181 :	00000101;
	32180 :	00001010;
	32179 :	00000111;
	32178 :	00000010;
	32177 :	00000011;
	32176 :	11110100;
	32175 :	11101001;
	32174 :	11011111;
	32173 :	11100000;
	32172 :	11101011;
	32171 :	11100110;
	32170 :	00000101;
	32169 :	00100000;
	32168 :	00001000;
	32167 :	00000100;
	32166 :	11111110;
	32165 :	00000000;
	32164 :	00000000;
	32163 :	11111011;
	32162 :	11100100;
	32161 :	11101011;
	32160 :	00000110;
	32159 :	00010011;
	32158 :	00010110;
	32157 :	00010011;
	32156 :	00000000;
	32155 :	11111011;
	32154 :	11101111;
	32153 :	11110011;
	32152 :	00000010;
	32151 :	11111111;
	32150 :	11111100;
	32149 :	00000000;
	32148 :	11110001;
	32147 :	11011101;
	32146 :	11010010;
	32145 :	11010011;
	32144 :	11101011;
	32143 :	11101101;
	32142 :	00000010;
	32141 :	00011011;
	32140 :	00001000;
	32139 :	00000011;
	32138 :	11111110;
	32137 :	00000000;
	32136 :	00000000;
	32135 :	11111110;
	32134 :	11101011;
	32133 :	11101100;
	32132 :	00000001;
	32131 :	00011110;
	32130 :	00011111;
	32129 :	00010100;
	32128 :	11111101;
	32127 :	11100110;
	32126 :	11100011;
	32125 :	11110110;
	32124 :	00001110;
	32123 :	00010011;
	32122 :	00010111;
	32121 :	00011111;
	32120 :	00001010;
	32119 :	11101101;
	32118 :	11101000;
	32117 :	11110000;
	32116 :	11110110;
	32115 :	11101000;
	32114 :	11110011;
	32113 :	00010101;
	32112 :	00000001;
	32111 :	00000101;
	32110 :	00000000;
	32109 :	00000000;
	32108 :	00000000;
	32107 :	11111110;
	32106 :	11110011;
	32105 :	11100101;
	32104 :	00010010;
	32103 :	00011101;
	32102 :	00011000;
	32101 :	11111101;
	32100 :	11111100;
	32099 :	11111000;
	32098 :	11111011;
	32097 :	00001001;
	32096 :	00011000;
	32095 :	00011110;
	32094 :	00101111;
	32093 :	00101011;
	32092 :	00101011;
	32091 :	00001010;
	32090 :	11101001;
	32089 :	11101111;
	32088 :	11110100;
	32087 :	11101100;
	32086 :	00000101;
	32085 :	00010110;
	32084 :	00000101;
	32083 :	00000111;
	32082 :	00000000;
	32081 :	00000000;
	32080 :	00000000;
	32079 :	00000000;
	32078 :	11110100;
	32077 :	11101110;
	32076 :	00010001;
	32075 :	00011010;
	32074 :	00010010;
	32073 :	00000100;
	32072 :	00001101;
	32071 :	00000011;
	32070 :	11111100;
	32069 :	00000001;
	32068 :	00011001;
	32067 :	00100011;
	32066 :	00110110;
	32065 :	00111000;
	32064 :	00100100;
	32063 :	11111001;
	32062 :	11100000;
	32061 :	11100110;
	32060 :	11111000;
	32059 :	11101101;
	32058 :	00000001;
	32057 :	00010111;
	32056 :	00001000;
	32055 :	00000101;
	32054 :	00000001;
	32053 :	00000000;
	32052 :	00000000;
	32051 :	11111111;
	32050 :	11110110;
	32049 :	11110111;
	32048 :	00000100;
	32047 :	00001010;
	32046 :	00001000;
	32045 :	00001110;
	32044 :	00001111;
	32043 :	00001011;
	32042 :	11111101;
	32041 :	00001001;
	32040 :	00011000;
	32039 :	00100000;
	32038 :	00100100;
	32037 :	00100011;
	32036 :	00010010;
	32035 :	11110111;
	32034 :	11100111;
	32033 :	11110110;
	32032 :	11111001;
	32031 :	00000010;
	32030 :	00000111;
	32029 :	00010100;
	32028 :	00000111;
	32027 :	00000010;
	32026 :	00000000;
	32025 :	00000000;
	32024 :	00000000;
	32023 :	00000000;
	32022 :	11110100;
	32021 :	11100110;
	32020 :	00000000;
	32019 :	00000101;
	32018 :	00010000;
	32017 :	00001111;
	32016 :	00010110;
	32015 :	00001111;
	32014 :	00001001;
	32013 :	00001101;
	32012 :	00001111;
	32011 :	00010101;
	32010 :	00010101;
	32009 :	00010000;
	32008 :	11111111;
	32007 :	11110011;
	32006 :	00000011;
	32005 :	00000011;
	32004 :	00001000;
	32003 :	00000010;
	32002 :	00001010;
	32001 :	00010110;
	32000 :	00001000;
	31999 :	00000001;
	31998 :	00000000;
	31997 :	00000000;
	31996 :	00000000;
	31995 :	11111111;
	31994 :	11110111;
	31993 :	11101100;
	31992 :	11111101;
	31991 :	00000110;
	31990 :	00010101;
	31989 :	00011000;
	31988 :	00011101;
	31987 :	00010101;
	31986 :	00001100;
	31985 :	00001011;
	31984 :	00010011;
	31983 :	00010110;
	31982 :	00010111;
	31981 :	00000101;
	31980 :	11111100;
	31979 :	11110100;
	31978 :	11110011;
	31977 :	00000011;
	31976 :	00000110;
	31975 :	00001001;
	31974 :	00001100;
	31973 :	00001111;
	31972 :	00000100;
	31971 :	00000001;
	31970 :	00000000;
	31969 :	00000000;
	31968 :	00000000;
	31967 :	11111111;
	31966 :	11111010;
	31965 :	11101111;
	31964 :	11111110;
	31963 :	00000000;
	31962 :	00010111;
	31961 :	00011110;
	31960 :	00100001;
	31959 :	00011010;
	31958 :	00011000;
	31957 :	00000101;
	31956 :	00001111;
	31955 :	00010110;
	31954 :	00010101;
	31953 :	11111101;
	31952 :	11111000;
	31951 :	11111000;
	31950 :	11111101;
	31949 :	00000110;
	31948 :	11111110;
	31947 :	00000101;
	31946 :	00010000;
	31945 :	00001011;
	31944 :	00000010;
	31943 :	00000000;
	31942 :	00000000;
	31941 :	00000000;
	31940 :	00000000;
	31939 :	00000000;
	31938 :	11111100;
	31937 :	11111001;
	31936 :	11111100;
	31935 :	00000010;
	31934 :	00010000;
	31933 :	00011001;
	31932 :	00011111;
	31931 :	00011100;
	31930 :	00011100;
	31929 :	00010001;
	31928 :	00001010;
	31927 :	00010001;
	31926 :	00001101;
	31925 :	00000100;
	31924 :	11110010;
	31923 :	11110101;
	31922 :	11111010;
	31921 :	11111011;
	31920 :	11111100;
	31919 :	00000001;
	31918 :	00001000;
	31917 :	00000100;
	31916 :	00000000;
	31915 :	00000000;
	31914 :	00000000;
	31913 :	00000000;
	31912 :	00000000;
	31911 :	00000000;
	31910 :	11111111;
	31909 :	11111110;
	31908 :	11111100;
	31907 :	11111111;
	31906 :	00001000;
	31905 :	00010011;
	31904 :	00010101;
	31903 :	00011011;
	31902 :	00010100;
	31901 :	00001111;
	31900 :	00001011;
	31899 :	00000111;
	31898 :	00000110;
	31897 :	00000000;
	31896 :	11111000;
	31895 :	11111110;
	31894 :	11111111;
	31893 :	11111101;
	31892 :	11111101;
	31891 :	11111110;
	31890 :	00000100;
	31889 :	00000011;
	31888 :	00000001;
	31887 :	00000000;
	31886 :	00000000;
	31885 :	00000000;
	31884 :	00000000;
	31883 :	00000000;
	31882 :	00000000;
	31881 :	00000000;
	31880 :	11111110;
	31879 :	00000010;
	31878 :	00000110;
	31877 :	00000110;
	31876 :	00001011;
	31875 :	00001101;
	31874 :	00001000;
	31873 :	00000011;
	31872 :	11111111;
	31871 :	00000001;
	31870 :	11111110;
	31869 :	11111000;
	31868 :	11111001;
	31867 :	11110111;
	31866 :	11111000;
	31865 :	11111010;
	31864 :	11111100;
	31863 :	11111111;
	31862 :	00000010;
	31861 :	00000001;
	31860 :	00000000;
	31859 :	00000000;
	31858 :	00000000;
	31857 :	00000000;
	31856 :	00000000;
	31855 :	00000000;
	31854 :	00000000;
	31853 :	00000000;
	31852 :	00000000;
	31851 :	00000010;
	31850 :	00000010;
	31849 :	00000101;
	31848 :	00000011;
	31847 :	00000100;
	31846 :	00000010;
	31845 :	00000001;
	31844 :	00000000;
	31843 :	11111101;
	31842 :	11111100;
	31841 :	11111100;
	31840 :	11111010;
	31839 :	11110111;
	31838 :	11110111;
	31837 :	11111010;
	31836 :	11111101;
	31835 :	11111111;
	31834 :	00000001;
	31833 :	00000000;
	31832 :	00000000;
	31831 :	00000000;
	31830 :	00000000;
	31829 :	00000000;
	31828 :	00000000;
	31827 :	00000000;
	31826 :	00000000;
	31825 :	00000000;
	31824 :	00000000;
	31823 :	00000001;
	31822 :	00000001;
	31821 :	00000010;
	31820 :	00000001;
	31819 :	00000001;
	31818 :	00000001;
	31817 :	00000001;
	31816 :	00000000;
	31815 :	00000000;
	31814 :	11111111;
	31813 :	11111111;
	31812 :	11111110;
	31811 :	11111011;
	31810 :	11111000;
	31809 :	11111100;
	31808 :	11111110;
	31807 :	00000000;
	31806 :	00000000;
	31805 :	00000000;
	31804 :	00000000;
	31803 :	00000000;
	31802 :	00000000;
	31801 :	00000000;
	31800 :	00000000;
	31799 :	00000000;
	31798 :	00000000;
	31797 :	00000000;
	31796 :	00000000;
	31795 :	00000000;
	31794 :	00000000;
	31793 :	00000000;
	31792 :	00000000;
	31791 :	00000000;
	31790 :	00000000;
	31789 :	00000000;
	31788 :	00000000;
	31787 :	00000000;
	31786 :	11111111;
	31785 :	00000000;
	31784 :	00000000;
	31783 :	11111111;
	31782 :	11111111;
	31781 :	11111111;
	31780 :	00000000;
	31779 :	00000000;
	31778 :	00000000;
	31777 :	00000000;
	31776 :	00000000;
	31775 :	00000000;
	31774 :	00000000;
	31773 :	00000000;
	31772 :	00000000;
	31771 :	00000000;
	31770 :	00000000;
	31769 :	00000000;
	31768 :	00000000;
	31767 :	00000000;
	31766 :	00000000;
	31765 :	00000000;
	31764 :	00000000;
	31763 :	00000000;
	31762 :	00000000;
	31761 :	00000000;
	31760 :	00000000;
	31759 :	00000000;
	31758 :	00000000;
	31757 :	00000000;
	31756 :	00000000;
	31755 :	00000000;
	31754 :	00000000;
	31753 :	00000000;
	31752 :	00000000;
	31751 :	00000000;
	31750 :	00000000;
	31749 :	00000000;
	31748 :	00000000;
	31747 :	00000000;
	31746 :	00000000;
	31745 :	00000000;
	31744 :	00000000;
	31743 :	XXXXXXXX;
	31742 :	XXXXXXXX;
	31741 :	XXXXXXXX;
	31740 :	XXXXXXXX;
	31739 :	XXXXXXXX;
	31738 :	XXXXXXXX;
	31737 :	XXXXXXXX;
	31736 :	XXXXXXXX;
	31735 :	XXXXXXXX;
	31734 :	XXXXXXXX;
	31733 :	XXXXXXXX;
	31732 :	XXXXXXXX;
	31731 :	XXXXXXXX;
	31730 :	XXXXXXXX;
	31729 :	XXXXXXXX;
	31728 :	XXXXXXXX;
	31727 :	XXXXXXXX;
	31726 :	XXXXXXXX;
	31725 :	XXXXXXXX;
	31724 :	XXXXXXXX;
	31723 :	XXXXXXXX;
	31722 :	XXXXXXXX;
	31721 :	XXXXXXXX;
	31720 :	XXXXXXXX;
	31719 :	XXXXXXXX;
	31718 :	XXXXXXXX;
	31717 :	XXXXXXXX;
	31716 :	XXXXXXXX;
	31715 :	XXXXXXXX;
	31714 :	XXXXXXXX;
	31713 :	XXXXXXXX;
	31712 :	XXXXXXXX;
	31711 :	XXXXXXXX;
	31710 :	XXXXXXXX;
	31709 :	XXXXXXXX;
	31708 :	XXXXXXXX;
	31707 :	XXXXXXXX;
	31706 :	XXXXXXXX;
	31705 :	XXXXXXXX;
	31704 :	XXXXXXXX;
	31703 :	XXXXXXXX;
	31702 :	XXXXXXXX;
	31701 :	XXXXXXXX;
	31700 :	XXXXXXXX;
	31699 :	XXXXXXXX;
	31698 :	XXXXXXXX;
	31697 :	XXXXXXXX;
	31696 :	XXXXXXXX;
	31695 :	XXXXXXXX;
	31694 :	XXXXXXXX;
	31693 :	XXXXXXXX;
	31692 :	XXXXXXXX;
	31691 :	XXXXXXXX;
	31690 :	XXXXXXXX;
	31689 :	XXXXXXXX;
	31688 :	XXXXXXXX;
	31687 :	XXXXXXXX;
	31686 :	XXXXXXXX;
	31685 :	XXXXXXXX;
	31684 :	XXXXXXXX;
	31683 :	XXXXXXXX;
	31682 :	XXXXXXXX;
	31681 :	XXXXXXXX;
	31680 :	XXXXXXXX;
	31679 :	XXXXXXXX;
	31678 :	XXXXXXXX;
	31677 :	XXXXXXXX;
	31676 :	XXXXXXXX;
	31675 :	XXXXXXXX;
	31674 :	XXXXXXXX;
	31673 :	XXXXXXXX;
	31672 :	XXXXXXXX;
	31671 :	XXXXXXXX;
	31670 :	XXXXXXXX;
	31669 :	XXXXXXXX;
	31668 :	XXXXXXXX;
	31667 :	XXXXXXXX;
	31666 :	XXXXXXXX;
	31665 :	XXXXXXXX;
	31664 :	XXXXXXXX;
	31663 :	XXXXXXXX;
	31662 :	XXXXXXXX;
	31661 :	XXXXXXXX;
	31660 :	XXXXXXXX;
	31659 :	XXXXXXXX;
	31658 :	XXXXXXXX;
	31657 :	XXXXXXXX;
	31656 :	XXXXXXXX;
	31655 :	XXXXXXXX;
	31654 :	XXXXXXXX;
	31653 :	XXXXXXXX;
	31652 :	XXXXXXXX;
	31651 :	XXXXXXXX;
	31650 :	XXXXXXXX;
	31649 :	XXXXXXXX;
	31648 :	XXXXXXXX;
	31647 :	XXXXXXXX;
	31646 :	XXXXXXXX;
	31645 :	XXXXXXXX;
	31644 :	XXXXXXXX;
	31643 :	XXXXXXXX;
	31642 :	XXXXXXXX;
	31641 :	XXXXXXXX;
	31640 :	XXXXXXXX;
	31639 :	XXXXXXXX;
	31638 :	XXXXXXXX;
	31637 :	XXXXXXXX;
	31636 :	XXXXXXXX;
	31635 :	XXXXXXXX;
	31634 :	XXXXXXXX;
	31633 :	XXXXXXXX;
	31632 :	XXXXXXXX;
	31631 :	XXXXXXXX;
	31630 :	XXXXXXXX;
	31629 :	XXXXXXXX;
	31628 :	XXXXXXXX;
	31627 :	XXXXXXXX;
	31626 :	XXXXXXXX;
	31625 :	XXXXXXXX;
	31624 :	XXXXXXXX;
	31623 :	XXXXXXXX;
	31622 :	XXXXXXXX;
	31621 :	XXXXXXXX;
	31620 :	XXXXXXXX;
	31619 :	XXXXXXXX;
	31618 :	XXXXXXXX;
	31617 :	XXXXXXXX;
	31616 :	XXXXXXXX;
	31615 :	XXXXXXXX;
	31614 :	XXXXXXXX;
	31613 :	XXXXXXXX;
	31612 :	XXXXXXXX;
	31611 :	XXXXXXXX;
	31610 :	XXXXXXXX;
	31609 :	XXXXXXXX;
	31608 :	XXXXXXXX;
	31607 :	XXXXXXXX;
	31606 :	XXXXXXXX;
	31605 :	XXXXXXXX;
	31604 :	XXXXXXXX;
	31603 :	XXXXXXXX;
	31602 :	XXXXXXXX;
	31601 :	XXXXXXXX;
	31600 :	XXXXXXXX;
	31599 :	XXXXXXXX;
	31598 :	XXXXXXXX;
	31597 :	XXXXXXXX;
	31596 :	XXXXXXXX;
	31595 :	XXXXXXXX;
	31594 :	XXXXXXXX;
	31593 :	XXXXXXXX;
	31592 :	XXXXXXXX;
	31591 :	XXXXXXXX;
	31590 :	XXXXXXXX;
	31589 :	XXXXXXXX;
	31588 :	XXXXXXXX;
	31587 :	XXXXXXXX;
	31586 :	XXXXXXXX;
	31585 :	XXXXXXXX;
	31584 :	XXXXXXXX;
	31583 :	XXXXXXXX;
	31582 :	XXXXXXXX;
	31581 :	XXXXXXXX;
	31580 :	XXXXXXXX;
	31579 :	XXXXXXXX;
	31578 :	XXXXXXXX;
	31577 :	XXXXXXXX;
	31576 :	XXXXXXXX;
	31575 :	XXXXXXXX;
	31574 :	XXXXXXXX;
	31573 :	XXXXXXXX;
	31572 :	XXXXXXXX;
	31571 :	XXXXXXXX;
	31570 :	XXXXXXXX;
	31569 :	XXXXXXXX;
	31568 :	XXXXXXXX;
	31567 :	XXXXXXXX;
	31566 :	XXXXXXXX;
	31565 :	XXXXXXXX;
	31564 :	XXXXXXXX;
	31563 :	XXXXXXXX;
	31562 :	XXXXXXXX;
	31561 :	XXXXXXXX;
	31560 :	XXXXXXXX;
	31559 :	XXXXXXXX;
	31558 :	XXXXXXXX;
	31557 :	XXXXXXXX;
	31556 :	XXXXXXXX;
	31555 :	XXXXXXXX;
	31554 :	XXXXXXXX;
	31553 :	XXXXXXXX;
	31552 :	XXXXXXXX;
	31551 :	XXXXXXXX;
	31550 :	XXXXXXXX;
	31549 :	XXXXXXXX;
	31548 :	XXXXXXXX;
	31547 :	XXXXXXXX;
	31546 :	XXXXXXXX;
	31545 :	XXXXXXXX;
	31544 :	XXXXXXXX;
	31543 :	XXXXXXXX;
	31542 :	XXXXXXXX;
	31541 :	XXXXXXXX;
	31540 :	XXXXXXXX;
	31539 :	XXXXXXXX;
	31538 :	XXXXXXXX;
	31537 :	XXXXXXXX;
	31536 :	XXXXXXXX;
	31535 :	XXXXXXXX;
	31534 :	XXXXXXXX;
	31533 :	XXXXXXXX;
	31532 :	XXXXXXXX;
	31531 :	XXXXXXXX;
	31530 :	XXXXXXXX;
	31529 :	XXXXXXXX;
	31528 :	XXXXXXXX;
	31527 :	XXXXXXXX;
	31526 :	XXXXXXXX;
	31525 :	XXXXXXXX;
	31524 :	XXXXXXXX;
	31523 :	XXXXXXXX;
	31522 :	XXXXXXXX;
	31521 :	XXXXXXXX;
	31520 :	XXXXXXXX;
	31519 :	XXXXXXXX;
	31518 :	XXXXXXXX;
	31517 :	XXXXXXXX;
	31516 :	XXXXXXXX;
	31515 :	XXXXXXXX;
	31514 :	XXXXXXXX;
	31513 :	XXXXXXXX;
	31512 :	XXXXXXXX;
	31511 :	XXXXXXXX;
	31510 :	XXXXXXXX;
	31509 :	XXXXXXXX;
	31508 :	XXXXXXXX;
	31507 :	XXXXXXXX;
	31506 :	XXXXXXXX;
	31505 :	XXXXXXXX;
	31504 :	XXXXXXXX;
	31503 :	00000000;
	31502 :	00000000;
	31501 :	00000000;
	31500 :	00000000;
	31499 :	00000000;
	31498 :	00000000;
	31497 :	00000000;
	31496 :	00000000;
	31495 :	00000000;
	31494 :	00000000;
	31493 :	00000000;
	31492 :	00000000;
	31491 :	00000000;
	31490 :	00000000;
	31489 :	00000000;
	31488 :	00000000;
	31487 :	00000000;
	31486 :	11111111;
	31485 :	00000000;
	31484 :	00000000;
	31483 :	00000000;
	31482 :	00000000;
	31481 :	00000000;
	31480 :	00000000;
	31479 :	00000000;
	31478 :	00000000;
	31477 :	00000000;
	31476 :	00000000;
	31475 :	00000000;
	31474 :	00000000;
	31473 :	00000000;
	31472 :	00000000;
	31471 :	00000000;
	31470 :	00000000;
	31469 :	00000000;
	31468 :	00000000;
	31467 :	00000001;
	31466 :	00000000;
	31465 :	00000000;
	31464 :	00000000;
	31463 :	00000001;
	31462 :	00000000;
	31461 :	00000000;
	31460 :	11111111;
	31459 :	11111111;
	31458 :	11111110;
	31457 :	11111101;
	31456 :	11111100;
	31455 :	11111111;
	31454 :	11111111;
	31453 :	00000000;
	31452 :	11111111;
	31451 :	00000000;
	31450 :	00000000;
	31449 :	00000000;
	31448 :	00000000;
	31447 :	00000000;
	31446 :	00000000;
	31445 :	00000000;
	31444 :	11111111;
	31443 :	00000000;
	31442 :	00000000;
	31441 :	00000000;
	31440 :	00000000;
	31439 :	00000000;
	31438 :	11111110;
	31437 :	00000000;
	31436 :	11111110;
	31435 :	11111110;
	31434 :	11111111;
	31433 :	00000000;
	31432 :	11111101;
	31431 :	11110111;
	31430 :	11110010;
	31429 :	11110010;
	31428 :	11110100;
	31427 :	11111000;
	31426 :	11111110;
	31425 :	00000000;
	31424 :	11111111;
	31423 :	00000000;
	31422 :	00000000;
	31421 :	00000000;
	31420 :	00000000;
	31419 :	00000000;
	31418 :	00000000;
	31417 :	00000000;
	31416 :	11111111;
	31415 :	00000001;
	31414 :	00000001;
	31413 :	00000000;
	31412 :	00000000;
	31411 :	11111100;
	31410 :	11111000;
	31409 :	11111010;
	31408 :	11111001;
	31407 :	11110111;
	31406 :	11111001;
	31405 :	11111000;
	31404 :	11101111;
	31403 :	11101111;
	31402 :	11100111;
	31401 :	11101000;
	31400 :	11110000;
	31399 :	11110100;
	31398 :	11110111;
	31397 :	00000001;
	31396 :	00000011;
	31395 :	00000000;
	31394 :	00000000;
	31393 :	00000000;
	31392 :	00000000;
	31391 :	00000000;
	31390 :	00000000;
	31389 :	11111111;
	31388 :	11111110;
	31387 :	00000000;
	31386 :	00000000;
	31385 :	11110111;
	31384 :	11110001;
	31383 :	11101111;
	31382 :	11101101;
	31381 :	11110001;
	31380 :	11110010;
	31379 :	11111001;
	31378 :	11111010;
	31377 :	11110000;
	31376 :	11101101;
	31375 :	11101101;
	31374 :	11100111;
	31373 :	11101011;
	31372 :	11111000;
	31371 :	11110110;
	31370 :	11111100;
	31369 :	00000011;
	31368 :	00000100;
	31367 :	11111111;
	31366 :	11111111;
	31365 :	00000000;
	31364 :	00000000;
	31363 :	00000000;
	31362 :	00000000;
	31361 :	11111110;
	31360 :	11111110;
	31359 :	11111110;
	31358 :	11111010;
	31357 :	11110001;
	31356 :	11101101;
	31355 :	11100100;
	31354 :	11100100;
	31353 :	11100101;
	31352 :	11110011;
	31351 :	11111000;
	31350 :	11110101;
	31349 :	11101100;
	31348 :	11110101;
	31347 :	11110111;
	31346 :	00000000;
	31345 :	11111010;
	31344 :	11111101;
	31343 :	11111110;
	31342 :	11111010;
	31341 :	11111111;
	31340 :	00000100;
	31339 :	11111110;
	31338 :	11111111;
	31337 :	00000000;
	31336 :	00000000;
	31335 :	00000000;
	31334 :	00000001;
	31333 :	00000010;
	31332 :	00000100;
	31331 :	00000111;
	31330 :	00000000;
	31329 :	11110110;
	31328 :	11101000;
	31327 :	11011110;
	31326 :	11101010;
	31325 :	11110010;
	31324 :	00000001;
	31323 :	11111001;
	31322 :	11111101;
	31321 :	00000011;
	31320 :	00000100;
	31319 :	00000101;
	31318 :	00000001;
	31317 :	00000001;
	31316 :	11110110;
	31315 :	11111011;
	31314 :	11111100;
	31313 :	11111000;
	31312 :	00000100;
	31311 :	11111100;
	31310 :	11111111;
	31309 :	00000000;
	31308 :	00000000;
	31307 :	00000000;
	31306 :	00000000;
	31305 :	00000010;
	31304 :	00001001;
	31303 :	00000010;
	31302 :	11111101;
	31301 :	11110100;
	31300 :	11100111;
	31299 :	11100000;
	31298 :	11101100;
	31297 :	11111001;
	31296 :	00001100;
	31295 :	00011001;
	31294 :	00100010;
	31293 :	00011110;
	31292 :	00001100;
	31291 :	00001110;
	31290 :	00000110;
	31289 :	00000101;
	31288 :	11111000;
	31287 :	11111010;
	31286 :	11101010;
	31285 :	11101100;
	31284 :	11111111;
	31283 :	11111100;
	31282 :	11111110;
	31281 :	11111111;
	31280 :	00000000;
	31279 :	00000000;
	31278 :	00000010;
	31277 :	00000100;
	31276 :	11111110;
	31275 :	11111110;
	31274 :	11101110;
	31273 :	11100001;
	31272 :	11011011;
	31271 :	11100001;
	31270 :	11100010;
	31269 :	11111110;
	31268 :	00011001;
	31267 :	00111001;
	31266 :	00111001;
	31265 :	00010100;
	31264 :	00011000;
	31263 :	00010110;
	31262 :	00001101;
	31261 :	00000100;
	31260 :	00001101;
	31259 :	11110101;
	31258 :	11101111;
	31257 :	11101000;
	31256 :	11110111;
	31255 :	11111010;
	31254 :	11111110;
	31253 :	11111111;
	31252 :	00000000;
	31251 :	00000001;
	31250 :	00000100;
	31249 :	00000110;
	31248 :	00000100;
	31247 :	00000001;
	31246 :	11101001;
	31245 :	11011001;
	31244 :	11001100;
	31243 :	11011001;
	31242 :	11100111;
	31241 :	00001000;
	31240 :	00110010;
	31239 :	00111011;
	31238 :	00110111;
	31237 :	00100000;
	31236 :	00011101;
	31235 :	00100010;
	31234 :	00011000;
	31233 :	00000011;
	31232 :	00000000;
	31231 :	11111111;
	31230 :	11100111;
	31229 :	11100101;
	31228 :	11101101;
	31227 :	11111001;
	31226 :	11111011;
	31225 :	11111111;
	31224 :	00000000;
	31223 :	00000001;
	31222 :	00000101;
	31221 :	00000101;
	31220 :	11111011;
	31219 :	11110011;
	31218 :	11101011;
	31217 :	11010111;
	31216 :	11011101;
	31215 :	11100101;
	31214 :	11110010;
	31213 :	00011011;
	31212 :	00111010;
	31211 :	00111110;
	31210 :	00111100;
	31209 :	00110000;
	31208 :	00100011;
	31207 :	00110001;
	31206 :	00101100;
	31205 :	00001110;
	31204 :	00001010;
	31203 :	11111100;
	31202 :	11110001;
	31201 :	11011100;
	31200 :	11100110;
	31199 :	11110000;
	31198 :	11111011;
	31197 :	11111111;
	31196 :	00000000;
	31195 :	00000001;
	31194 :	00000101;
	31193 :	00000111;
	31192 :	11101101;
	31191 :	11100110;
	31190 :	11100000;
	31189 :	11100000;
	31188 :	11011010;
	31187 :	11010111;
	31186 :	11111101;
	31185 :	00100100;
	31184 :	00111011;
	31183 :	00111000;
	31182 :	00100111;
	31181 :	00101100;
	31180 :	00111010;
	31179 :	00110111;
	31178 :	00100011;
	31177 :	00000010;
	31176 :	11110010;
	31175 :	00000111;
	31174 :	11101001;
	31173 :	11010101;
	31172 :	11100111;
	31171 :	11101100;
	31170 :	11110110;
	31169 :	11111110;
	31168 :	00000000;
	31167 :	00000001;
	31166 :	00001001;
	31165 :	00000000;
	31164 :	11101001;
	31163 :	11010000;
	31162 :	11011111;
	31161 :	11011101;
	31160 :	11100011;
	31159 :	11101001;
	31158 :	00010100;
	31157 :	00101011;
	31156 :	00101000;
	31155 :	00011101;
	31154 :	00001110;
	31153 :	00011111;
	31152 :	00100100;
	31151 :	00100010;
	31150 :	00001110;
	31149 :	11111111;
	31148 :	11101111;
	31147 :	11110110;
	31146 :	11101110;
	31145 :	11011011;
	31144 :	11011100;
	31143 :	11101010;
	31142 :	11110101;
	31141 :	11111111;
	31140 :	00000000;
	31139 :	00000010;
	31138 :	00001011;
	31137 :	11111111;
	31136 :	11011110;
	31135 :	11011110;
	31134 :	11100001;
	31133 :	11100000;
	31132 :	11100111;
	31131 :	11111100;
	31130 :	00011110;
	31129 :	00011011;
	31128 :	00000000;
	31127 :	11110100;
	31126 :	11110110;
	31125 :	11111010;
	31124 :	11111001;
	31123 :	11101010;
	31122 :	11110111;
	31121 :	00000000;
	31120 :	11111111;
	31119 :	11111111;
	31118 :	11110010;
	31117 :	11011001;
	31116 :	11011100;
	31115 :	11101000;
	31114 :	11110110;
	31113 :	00000000;
	31112 :	00000000;
	31111 :	00000001;
	31110 :	00001010;
	31109 :	11111110;
	31108 :	11100100;
	31107 :	11100001;
	31106 :	11011111;
	31105 :	11010100;
	31104 :	11011100;
	31103 :	11111001;
	31102 :	00011010;
	31101 :	00001011;
	31100 :	11110001;
	31099 :	11011110;
	31098 :	11101110;
	31097 :	11110001;
	31096 :	11101000;
	31095 :	11101101;
	31094 :	00000110;
	31093 :	00010000;
	31092 :	00000000;
	31091 :	00000011;
	31090 :	11101000;
	31089 :	11011010;
	31088 :	11100011;
	31087 :	11100111;
	31086 :	11110100;
	31085 :	11111101;
	31084 :	11111111;
	31083 :	00000000;
	31082 :	00000111;
	31081 :	11111101;
	31080 :	11010010;
	31079 :	11010100;
	31078 :	11001000;
	31077 :	11011000;
	31076 :	11011000;
	31075 :	11100000;
	31074 :	00001001;
	31073 :	11111101;
	31072 :	11111000;
	31071 :	11100111;
	31070 :	11111001;
	31069 :	11110110;
	31068 :	00000001;
	31067 :	00001111;
	31066 :	00011011;
	31065 :	00010001;
	31064 :	11110001;
	31063 :	11111010;
	31062 :	11110001;
	31061 :	11100101;
	31060 :	11011111;
	31059 :	11101101;
	31058 :	11110011;
	31057 :	11111011;
	31056 :	00000000;
	31055 :	00000000;
	31054 :	00001000;
	31053 :	00001011;
	31052 :	11100001;
	31051 :	11100100;
	31050 :	11100100;
	31049 :	11010110;
	31048 :	11001100;
	31047 :	11100011;
	31046 :	00000111;
	31045 :	11111111;
	31044 :	11111011;
	31043 :	11110010;
	31042 :	00001100;
	31041 :	00001111;
	31040 :	00000101;
	31039 :	00011111;
	31038 :	00011010;
	31037 :	00001000;
	31036 :	11111001;
	31035 :	11111100;
	31034 :	11111100;
	31033 :	11101001;
	31032 :	11101001;
	31031 :	11110000;
	31030 :	11111001;
	31029 :	11111110;
	31028 :	00000000;
	31027 :	00000000;
	31026 :	00000101;
	31025 :	00000001;
	31024 :	11111110;
	31023 :	11100111;
	31022 :	11100111;
	31021 :	11010111;
	31020 :	11000101;
	31019 :	11100010;
	31018 :	11110111;
	31017 :	11111011;
	31016 :	11111010;
	31015 :	11111100;
	31014 :	00001110;
	31013 :	00001000;
	31012 :	00000010;
	31011 :	00001110;
	31010 :	00000011;
	31009 :	00001001;
	31008 :	11111111;
	31007 :	11111111;
	31006 :	11111101;
	31005 :	11101011;
	31004 :	11101010;
	31003 :	11110011;
	31002 :	11111001;
	31001 :	11111110;
	31000 :	00000000;
	30999 :	00000000;
	30998 :	00000100;
	30997 :	00001111;
	30996 :	11111101;
	30995 :	11110101;
	30994 :	11101011;
	30993 :	11010111;
	30992 :	11001110;
	30991 :	11011010;
	30990 :	11111011;
	30989 :	00000010;
	30988 :	00000110;
	30987 :	11111100;
	30986 :	00001000;
	30985 :	00000111;
	30984 :	00000110;
	30983 :	00000110;
	30982 :	00000100;
	30981 :	11110100;
	30980 :	11110111;
	30979 :	11111001;
	30978 :	11111101;
	30977 :	11101101;
	30976 :	11110000;
	30975 :	11110011;
	30974 :	11110111;
	30973 :	11111110;
	30972 :	00000000;
	30971 :	00000000;
	30970 :	00000100;
	30969 :	00001101;
	30968 :	00000100;
	30967 :	11110101;
	30966 :	11100101;
	30965 :	11010000;
	30964 :	11001011;
	30963 :	11100001;
	30962 :	00000010;
	30961 :	00010110;
	30960 :	00010000;
	30959 :	00001110;
	30958 :	00000011;
	30957 :	00000110;
	30956 :	00010100;
	30955 :	00000001;
	30954 :	00001010;
	30953 :	11110001;
	30952 :	11110110;
	30951 :	11101011;
	30950 :	11111011;
	30949 :	11101111;
	30948 :	11110100;
	30947 :	11110111;
	30946 :	11111011;
	30945 :	11111101;
	30944 :	00000000;
	30943 :	00000000;
	30942 :	00000100;
	30941 :	00010001;
	30940 :	00000101;
	30939 :	11111011;
	30938 :	11100100;
	30937 :	11010100;
	30936 :	11011101;
	30935 :	11101001;
	30934 :	00000010;
	30933 :	00011101;
	30932 :	00100000;
	30931 :	00010101;
	30930 :	00010010;
	30929 :	00011011;
	30928 :	00000111;
	30927 :	00000100;
	30926 :	11111000;
	30925 :	11110000;
	30924 :	11110100;
	30923 :	11111101;
	30922 :	11111011;
	30921 :	11110111;
	30920 :	11111010;
	30919 :	11111100;
	30918 :	11111110;
	30917 :	00000000;
	30916 :	00000000;
	30915 :	00000000;
	30914 :	00000011;
	30913 :	00001000;
	30912 :	00001010;
	30911 :	11111001;
	30910 :	11101100;
	30909 :	11011100;
	30908 :	11011101;
	30907 :	11100111;
	30906 :	11111100;
	30905 :	00010011;
	30904 :	00010101;
	30903 :	00010111;
	30902 :	00010100;
	30901 :	00010110;
	30900 :	00001100;
	30899 :	00000111;
	30898 :	00000001;
	30897 :	11111100;
	30896 :	11111001;
	30895 :	11111110;
	30894 :	00000010;
	30893 :	11111101;
	30892 :	11111110;
	30891 :	11111111;
	30890 :	00000000;
	30889 :	00000000;
	30888 :	00000000;
	30887 :	00000000;
	30886 :	00000001;
	30885 :	00000010;
	30884 :	00000001;
	30883 :	11111111;
	30882 :	11110101;
	30881 :	11101100;
	30880 :	11101101;
	30879 :	11110000;
	30878 :	00000000;
	30877 :	00000010;
	30876 :	00001001;
	30875 :	00001100;
	30874 :	00001011;
	30873 :	00001101;
	30872 :	00000111;
	30871 :	11111110;
	30870 :	11111010;
	30869 :	11111101;
	30868 :	11111110;
	30867 :	11111111;
	30866 :	11111111;
	30865 :	00000000;
	30864 :	00000000;
	30863 :	00000000;
	30862 :	00000000;
	30861 :	00000000;
	30860 :	00000000;
	30859 :	00000000;
	30858 :	00000001;
	30857 :	00000001;
	30856 :	00000010;
	30855 :	11111101;
	30854 :	11111010;
	30853 :	11110110;
	30852 :	11111000;
	30851 :	11111010;
	30850 :	11111101;
	30849 :	11111110;
	30848 :	00000001;
	30847 :	00001001;
	30846 :	00001011;
	30845 :	00001011;
	30844 :	00000100;
	30843 :	00000000;
	30842 :	11111100;
	30841 :	00000000;
	30840 :	00000001;
	30839 :	11111111;
	30838 :	11111110;
	30837 :	11111111;
	30836 :	00000000;
	30835 :	00000000;
	30834 :	00000000;
	30833 :	00000000;
	30832 :	00000000;
	30831 :	00000000;
	30830 :	00000000;
	30829 :	00000001;
	30828 :	00000001;
	30827 :	11111110;
	30826 :	11111101;
	30825 :	11111011;
	30824 :	11111100;
	30823 :	11111110;
	30822 :	11111011;
	30821 :	11111100;
	30820 :	11111111;
	30819 :	00000011;
	30818 :	00000011;
	30817 :	00000011;
	30816 :	00000011;
	30815 :	00000100;
	30814 :	00000000;
	30813 :	00000001;
	30812 :	00000010;
	30811 :	00000001;
	30810 :	11111111;
	30809 :	00000000;
	30808 :	00000000;
	30807 :	00000000;
	30806 :	00000000;
	30805 :	00000000;
	30804 :	00000000;
	30803 :	00000000;
	30802 :	00000000;
	30801 :	00000000;
	30800 :	00000000;
	30799 :	00000000;
	30798 :	11111111;
	30797 :	11111110;
	30796 :	11111111;
	30795 :	11111111;
	30794 :	00000000;
	30793 :	00000000;
	30792 :	00000000;
	30791 :	00000000;
	30790 :	00000000;
	30789 :	00000000;
	30788 :	00000000;
	30787 :	00000000;
	30786 :	00000001;
	30785 :	00000001;
	30784 :	00000001;
	30783 :	00000000;
	30782 :	00000000;
	30781 :	00000000;
	30780 :	00000000;
	30779 :	00000000;
	30778 :	00000000;
	30777 :	00000000;
	30776 :	00000000;
	30775 :	00000000;
	30774 :	00000000;
	30773 :	00000000;
	30772 :	00000000;
	30771 :	00000000;
	30770 :	00000000;
	30769 :	00000000;
	30768 :	00000000;
	30767 :	00000000;
	30766 :	00000000;
	30765 :	00000000;
	30764 :	00000000;
	30763 :	00000000;
	30762 :	00000000;
	30761 :	00000000;
	30760 :	00000000;
	30759 :	00000000;
	30758 :	00000000;
	30757 :	00000000;
	30756 :	00000000;
	30755 :	00000000;
	30754 :	00000000;
	30753 :	00000000;
	30752 :	00000000;
	30751 :	00000000;
	30750 :	00000000;
	30749 :	00000000;
	30748 :	00000000;
	30747 :	00000000;
	30746 :	00000000;
	30745 :	00000000;
	30744 :	00000000;
	30743 :	00000000;
	30742 :	00000000;
	30741 :	00000000;
	30740 :	00000000;
	30739 :	00000000;
	30738 :	00000000;
	30737 :	00000000;
	30736 :	00000000;
	30735 :	00000000;
	30734 :	00000000;
	30733 :	00000000;
	30732 :	00000000;
	30731 :	00000000;
	30730 :	00000000;
	30729 :	00000000;
	30728 :	00000000;
	30727 :	00000000;
	30726 :	00000000;
	30725 :	00000000;
	30724 :	00000000;
	30723 :	00000000;
	30722 :	00000000;
	30721 :	00000000;
	30720 :	00000000;
	30719 :	XXXXXXXX;
	30718 :	XXXXXXXX;
	30717 :	XXXXXXXX;
	30716 :	XXXXXXXX;
	30715 :	XXXXXXXX;
	30714 :	XXXXXXXX;
	30713 :	XXXXXXXX;
	30712 :	XXXXXXXX;
	30711 :	XXXXXXXX;
	30710 :	XXXXXXXX;
	30709 :	XXXXXXXX;
	30708 :	XXXXXXXX;
	30707 :	XXXXXXXX;
	30706 :	XXXXXXXX;
	30705 :	XXXXXXXX;
	30704 :	XXXXXXXX;
	30703 :	XXXXXXXX;
	30702 :	XXXXXXXX;
	30701 :	XXXXXXXX;
	30700 :	XXXXXXXX;
	30699 :	XXXXXXXX;
	30698 :	XXXXXXXX;
	30697 :	XXXXXXXX;
	30696 :	XXXXXXXX;
	30695 :	XXXXXXXX;
	30694 :	XXXXXXXX;
	30693 :	XXXXXXXX;
	30692 :	XXXXXXXX;
	30691 :	XXXXXXXX;
	30690 :	XXXXXXXX;
	30689 :	XXXXXXXX;
	30688 :	XXXXXXXX;
	30687 :	XXXXXXXX;
	30686 :	XXXXXXXX;
	30685 :	XXXXXXXX;
	30684 :	XXXXXXXX;
	30683 :	XXXXXXXX;
	30682 :	XXXXXXXX;
	30681 :	XXXXXXXX;
	30680 :	XXXXXXXX;
	30679 :	XXXXXXXX;
	30678 :	XXXXXXXX;
	30677 :	XXXXXXXX;
	30676 :	XXXXXXXX;
	30675 :	XXXXXXXX;
	30674 :	XXXXXXXX;
	30673 :	XXXXXXXX;
	30672 :	XXXXXXXX;
	30671 :	XXXXXXXX;
	30670 :	XXXXXXXX;
	30669 :	XXXXXXXX;
	30668 :	XXXXXXXX;
	30667 :	XXXXXXXX;
	30666 :	XXXXXXXX;
	30665 :	XXXXXXXX;
	30664 :	XXXXXXXX;
	30663 :	XXXXXXXX;
	30662 :	XXXXXXXX;
	30661 :	XXXXXXXX;
	30660 :	XXXXXXXX;
	30659 :	XXXXXXXX;
	30658 :	XXXXXXXX;
	30657 :	XXXXXXXX;
	30656 :	XXXXXXXX;
	30655 :	XXXXXXXX;
	30654 :	XXXXXXXX;
	30653 :	XXXXXXXX;
	30652 :	XXXXXXXX;
	30651 :	XXXXXXXX;
	30650 :	XXXXXXXX;
	30649 :	XXXXXXXX;
	30648 :	XXXXXXXX;
	30647 :	XXXXXXXX;
	30646 :	XXXXXXXX;
	30645 :	XXXXXXXX;
	30644 :	XXXXXXXX;
	30643 :	XXXXXXXX;
	30642 :	XXXXXXXX;
	30641 :	XXXXXXXX;
	30640 :	XXXXXXXX;
	30639 :	XXXXXXXX;
	30638 :	XXXXXXXX;
	30637 :	XXXXXXXX;
	30636 :	XXXXXXXX;
	30635 :	XXXXXXXX;
	30634 :	XXXXXXXX;
	30633 :	XXXXXXXX;
	30632 :	XXXXXXXX;
	30631 :	XXXXXXXX;
	30630 :	XXXXXXXX;
	30629 :	XXXXXXXX;
	30628 :	XXXXXXXX;
	30627 :	XXXXXXXX;
	30626 :	XXXXXXXX;
	30625 :	XXXXXXXX;
	30624 :	XXXXXXXX;
	30623 :	XXXXXXXX;
	30622 :	XXXXXXXX;
	30621 :	XXXXXXXX;
	30620 :	XXXXXXXX;
	30619 :	XXXXXXXX;
	30618 :	XXXXXXXX;
	30617 :	XXXXXXXX;
	30616 :	XXXXXXXX;
	30615 :	XXXXXXXX;
	30614 :	XXXXXXXX;
	30613 :	XXXXXXXX;
	30612 :	XXXXXXXX;
	30611 :	XXXXXXXX;
	30610 :	XXXXXXXX;
	30609 :	XXXXXXXX;
	30608 :	XXXXXXXX;
	30607 :	XXXXXXXX;
	30606 :	XXXXXXXX;
	30605 :	XXXXXXXX;
	30604 :	XXXXXXXX;
	30603 :	XXXXXXXX;
	30602 :	XXXXXXXX;
	30601 :	XXXXXXXX;
	30600 :	XXXXXXXX;
	30599 :	XXXXXXXX;
	30598 :	XXXXXXXX;
	30597 :	XXXXXXXX;
	30596 :	XXXXXXXX;
	30595 :	XXXXXXXX;
	30594 :	XXXXXXXX;
	30593 :	XXXXXXXX;
	30592 :	XXXXXXXX;
	30591 :	XXXXXXXX;
	30590 :	XXXXXXXX;
	30589 :	XXXXXXXX;
	30588 :	XXXXXXXX;
	30587 :	XXXXXXXX;
	30586 :	XXXXXXXX;
	30585 :	XXXXXXXX;
	30584 :	XXXXXXXX;
	30583 :	XXXXXXXX;
	30582 :	XXXXXXXX;
	30581 :	XXXXXXXX;
	30580 :	XXXXXXXX;
	30579 :	XXXXXXXX;
	30578 :	XXXXXXXX;
	30577 :	XXXXXXXX;
	30576 :	XXXXXXXX;
	30575 :	XXXXXXXX;
	30574 :	XXXXXXXX;
	30573 :	XXXXXXXX;
	30572 :	XXXXXXXX;
	30571 :	XXXXXXXX;
	30570 :	XXXXXXXX;
	30569 :	XXXXXXXX;
	30568 :	XXXXXXXX;
	30567 :	XXXXXXXX;
	30566 :	XXXXXXXX;
	30565 :	XXXXXXXX;
	30564 :	XXXXXXXX;
	30563 :	XXXXXXXX;
	30562 :	XXXXXXXX;
	30561 :	XXXXXXXX;
	30560 :	XXXXXXXX;
	30559 :	XXXXXXXX;
	30558 :	XXXXXXXX;
	30557 :	XXXXXXXX;
	30556 :	XXXXXXXX;
	30555 :	XXXXXXXX;
	30554 :	XXXXXXXX;
	30553 :	XXXXXXXX;
	30552 :	XXXXXXXX;
	30551 :	XXXXXXXX;
	30550 :	XXXXXXXX;
	30549 :	XXXXXXXX;
	30548 :	XXXXXXXX;
	30547 :	XXXXXXXX;
	30546 :	XXXXXXXX;
	30545 :	XXXXXXXX;
	30544 :	XXXXXXXX;
	30543 :	XXXXXXXX;
	30542 :	XXXXXXXX;
	30541 :	XXXXXXXX;
	30540 :	XXXXXXXX;
	30539 :	XXXXXXXX;
	30538 :	XXXXXXXX;
	30537 :	XXXXXXXX;
	30536 :	XXXXXXXX;
	30535 :	XXXXXXXX;
	30534 :	XXXXXXXX;
	30533 :	XXXXXXXX;
	30532 :	XXXXXXXX;
	30531 :	XXXXXXXX;
	30530 :	XXXXXXXX;
	30529 :	XXXXXXXX;
	30528 :	XXXXXXXX;
	30527 :	XXXXXXXX;
	30526 :	XXXXXXXX;
	30525 :	XXXXXXXX;
	30524 :	XXXXXXXX;
	30523 :	XXXXXXXX;
	30522 :	XXXXXXXX;
	30521 :	XXXXXXXX;
	30520 :	XXXXXXXX;
	30519 :	XXXXXXXX;
	30518 :	XXXXXXXX;
	30517 :	XXXXXXXX;
	30516 :	XXXXXXXX;
	30515 :	XXXXXXXX;
	30514 :	XXXXXXXX;
	30513 :	XXXXXXXX;
	30512 :	XXXXXXXX;
	30511 :	XXXXXXXX;
	30510 :	XXXXXXXX;
	30509 :	XXXXXXXX;
	30508 :	XXXXXXXX;
	30507 :	XXXXXXXX;
	30506 :	XXXXXXXX;
	30505 :	XXXXXXXX;
	30504 :	XXXXXXXX;
	30503 :	XXXXXXXX;
	30502 :	XXXXXXXX;
	30501 :	XXXXXXXX;
	30500 :	XXXXXXXX;
	30499 :	XXXXXXXX;
	30498 :	XXXXXXXX;
	30497 :	XXXXXXXX;
	30496 :	XXXXXXXX;
	30495 :	XXXXXXXX;
	30494 :	XXXXXXXX;
	30493 :	XXXXXXXX;
	30492 :	XXXXXXXX;
	30491 :	XXXXXXXX;
	30490 :	XXXXXXXX;
	30489 :	XXXXXXXX;
	30488 :	XXXXXXXX;
	30487 :	XXXXXXXX;
	30486 :	XXXXXXXX;
	30485 :	XXXXXXXX;
	30484 :	XXXXXXXX;
	30483 :	XXXXXXXX;
	30482 :	XXXXXXXX;
	30481 :	XXXXXXXX;
	30480 :	XXXXXXXX;
	30479 :	00000000;
	30478 :	00000000;
	30477 :	00000000;
	30476 :	00000000;
	30475 :	00000000;
	30474 :	00000000;
	30473 :	00000000;
	30472 :	00000000;
	30471 :	00000000;
	30470 :	00000000;
	30469 :	00000000;
	30468 :	00000000;
	30467 :	00000000;
	30466 :	00000000;
	30465 :	00000000;
	30464 :	00000000;
	30463 :	00000000;
	30462 :	00000000;
	30461 :	00000000;
	30460 :	00000000;
	30459 :	00000000;
	30458 :	00000000;
	30457 :	00000000;
	30456 :	00000000;
	30455 :	00000000;
	30454 :	00000000;
	30453 :	00000000;
	30452 :	00000000;
	30451 :	00000000;
	30450 :	00000000;
	30449 :	00000000;
	30448 :	00000000;
	30447 :	00000000;
	30446 :	00000000;
	30445 :	00000000;
	30444 :	00000000;
	30443 :	00000000;
	30442 :	00000000;
	30441 :	00000000;
	30440 :	00000000;
	30439 :	00000000;
	30438 :	00000000;
	30437 :	11111111;
	30436 :	11111111;
	30435 :	11111110;
	30434 :	00000000;
	30433 :	11111110;
	30432 :	11111101;
	30431 :	11111001;
	30430 :	11111101;
	30429 :	00000000;
	30428 :	00000000;
	30427 :	00000000;
	30426 :	00000000;
	30425 :	00000000;
	30424 :	00000000;
	30423 :	00000000;
	30422 :	00000000;
	30421 :	00000000;
	30420 :	11111111;
	30419 :	00000000;
	30418 :	00000000;
	30417 :	00000000;
	30416 :	00000000;
	30415 :	00000000;
	30414 :	00000000;
	30413 :	11111111;
	30412 :	11111101;
	30411 :	00000000;
	30410 :	11111110;
	30409 :	11111110;
	30408 :	11111101;
	30407 :	11111100;
	30406 :	11111000;
	30405 :	11111000;
	30404 :	11101111;
	30403 :	11110000;
	30402 :	11111000;
	30401 :	11111100;
	30400 :	00000000;
	30399 :	00000000;
	30398 :	00000000;
	30397 :	00000000;
	30396 :	00000000;
	30395 :	00000000;
	30394 :	00000000;
	30393 :	00000011;
	30392 :	00000011;
	30391 :	00000101;
	30390 :	00000010;
	30389 :	11111111;
	30388 :	00000000;
	30387 :	11111100;
	30386 :	11111011;
	30385 :	11111100;
	30384 :	11110101;
	30383 :	11111011;
	30382 :	11111100;
	30381 :	11111100;
	30380 :	00000001;
	30379 :	11111110;
	30378 :	11111101;
	30377 :	11110010;
	30376 :	11100001;
	30375 :	11100000;
	30374 :	11101011;
	30373 :	11111001;
	30372 :	11111101;
	30371 :	00000000;
	30370 :	00000000;
	30369 :	00000000;
	30368 :	00000000;
	30367 :	00000000;
	30366 :	00000000;
	30365 :	00000110;
	30364 :	00000110;
	30363 :	00000111;
	30362 :	00000010;
	30361 :	11111010;
	30360 :	11110110;
	30359 :	11110110;
	30358 :	11110011;
	30357 :	11110100;
	30356 :	11101100;
	30355 :	11101010;
	30354 :	11111100;
	30353 :	00000011;
	30352 :	00001011;
	30351 :	00001110;
	30350 :	00001111;
	30349 :	11101101;
	30348 :	11100111;
	30347 :	11010101;
	30346 :	11100001;
	30345 :	11101110;
	30344 :	11111010;
	30343 :	11111111;
	30342 :	00000000;
	30341 :	00000000;
	30340 :	00000000;
	30339 :	00000000;
	30338 :	00000000;
	30337 :	00000010;
	30336 :	00000101;
	30335 :	00000101;
	30334 :	00000011;
	30333 :	11111001;
	30332 :	11111001;
	30331 :	11111010;
	30330 :	11110110;
	30329 :	11110000;
	30328 :	11101001;
	30327 :	11101110;
	30326 :	11111010;
	30325 :	00001100;
	30324 :	00010111;
	30323 :	00010101;
	30322 :	00000110;
	30321 :	11110010;
	30320 :	11111001;
	30319 :	11101111;
	30318 :	11101110;
	30317 :	11101110;
	30316 :	11111011;
	30315 :	11111110;
	30314 :	00000000;
	30313 :	00000000;
	30312 :	00000000;
	30311 :	00000001;
	30310 :	00000011;
	30309 :	00001101;
	30308 :	00001000;
	30307 :	00000111;
	30306 :	11111101;
	30305 :	11111101;
	30304 :	11110011;
	30303 :	11110110;
	30302 :	11110100;
	30301 :	11110000;
	30300 :	11110100;
	30299 :	11110010;
	30298 :	11111011;
	30297 :	00000100;
	30296 :	00001110;
	30295 :	00010110;
	30294 :	00000100;
	30293 :	11111001;
	30292 :	11111110;
	30291 :	11111110;
	30290 :	11110111;
	30289 :	11110001;
	30288 :	11110110;
	30287 :	11111101;
	30286 :	00000000;
	30285 :	00000000;
	30284 :	00000000;
	30283 :	00000001;
	30282 :	00000101;
	30281 :	00010011;
	30280 :	00001100;
	30279 :	11111111;
	30278 :	11111000;
	30277 :	11111101;
	30276 :	11111110;
	30275 :	00000101;
	30274 :	00000011;
	30273 :	11110000;
	30272 :	11101110;
	30271 :	11110011;
	30270 :	11101101;
	30269 :	00001000;
	30268 :	00011011;
	30267 :	00100101;
	30266 :	00001111;
	30265 :	00001101;
	30264 :	00001010;
	30263 :	00011011;
	30262 :	00000010;
	30261 :	11101001;
	30260 :	11110111;
	30259 :	11111010;
	30258 :	11111111;
	30257 :	00000000;
	30256 :	00000000;
	30255 :	00000010;
	30254 :	00010001;
	30253 :	00011101;
	30252 :	00010100;
	30251 :	11111010;
	30250 :	11110001;
	30249 :	11111100;
	30248 :	00000011;
	30247 :	00000111;
	30246 :	00000001;
	30245 :	11101011;
	30244 :	11100111;
	30243 :	11101001;
	30242 :	11100101;
	30241 :	11111111;
	30240 :	00010110;
	30239 :	00110011;
	30238 :	00010010;
	30237 :	00001011;
	30236 :	00010011;
	30235 :	00101000;
	30234 :	00011000;
	30233 :	11110000;
	30232 :	11110101;
	30231 :	11111000;
	30230 :	11111110;
	30229 :	00000000;
	30228 :	00000000;
	30227 :	00000011;
	30226 :	00010010;
	30225 :	00100111;
	30224 :	00000110;
	30223 :	11111011;
	30222 :	11101101;
	30221 :	11110111;
	30220 :	11110010;
	30219 :	11110001;
	30218 :	11110001;
	30217 :	11100100;
	30216 :	11011110;
	30215 :	11110001;
	30214 :	11101100;
	30213 :	00001111;
	30212 :	00010011;
	30211 :	00100110;
	30210 :	00100011;
	30209 :	00010100;
	30208 :	00011111;
	30207 :	00101100;
	30206 :	00011100;
	30205 :	11011111;
	30204 :	11110101;
	30203 :	11111010;
	30202 :	11111110;
	30201 :	00000000;
	30200 :	00000000;
	30199 :	00000001;
	30198 :	00010010;
	30197 :	00100111;
	30196 :	00000110;
	30195 :	11101001;
	30194 :	11101101;
	30193 :	11110001;
	30192 :	11110100;
	30191 :	11110010;
	30190 :	11101011;
	30189 :	11100000;
	30188 :	11101000;
	30187 :	11110000;
	30186 :	11110100;
	30185 :	11111100;
	30184 :	00000111;
	30183 :	00001110;
	30182 :	00000111;
	30181 :	00011001;
	30180 :	00101011;
	30179 :	00111100;
	30178 :	00010110;
	30177 :	11011101;
	30176 :	11110100;
	30175 :	11111010;
	30174 :	11111111;
	30173 :	00000000;
	30172 :	00000000;
	30171 :	00000010;
	30170 :	00011000;
	30169 :	00101111;
	30168 :	00000101;
	30167 :	11110101;
	30166 :	11111110;
	30165 :	11110110;
	30164 :	11101001;
	30163 :	11011100;
	30162 :	11101100;
	30161 :	11101000;
	30160 :	11101001;
	30159 :	11100111;
	30158 :	11101111;
	30157 :	00000111;
	30156 :	11111010;
	30155 :	11101110;
	30154 :	11110101;
	30153 :	00010111;
	30152 :	00111101;
	30151 :	01001001;
	30150 :	00011001;
	30149 :	11011000;
	30148 :	11101111;
	30147 :	11111110;
	30146 :	11111110;
	30145 :	00000000;
	30144 :	00000000;
	30143 :	00000011;
	30142 :	00011101;
	30141 :	00101001;
	30140 :	00000101;
	30139 :	11111100;
	30138 :	00000000;
	30137 :	11110010;
	30136 :	11101110;
	30135 :	11101010;
	30134 :	11100110;
	30133 :	11010111;
	30132 :	11000101;
	30131 :	11100000;
	30130 :	11110010;
	30129 :	00000000;
	30128 :	11111110;
	30127 :	11111101;
	30126 :	00011011;
	30125 :	01001001;
	30124 :	01001001;
	30123 :	01010110;
	30122 :	00101101;
	30121 :	11111101;
	30120 :	11110010;
	30119 :	11111100;
	30118 :	11111111;
	30117 :	00000000;
	30116 :	00000000;
	30115 :	00000100;
	30114 :	00100010;
	30113 :	00010011;
	30112 :	11111100;
	30111 :	11111000;
	30110 :	11101101;
	30109 :	11110010;
	30108 :	11110010;
	30107 :	11110111;
	30106 :	11101010;
	30105 :	11001111;
	30104 :	11000111;
	30103 :	11000101;
	30102 :	11100001;
	30101 :	00000011;
	30100 :	00000111;
	30099 :	00001010;
	30098 :	00110100;
	30097 :	01001101;
	30096 :	01010001;
	30095 :	01001100;
	30094 :	00111101;
	30093 :	11111010;
	30092 :	11111000;
	30091 :	11111000;
	30090 :	11111110;
	30089 :	00000000;
	30088 :	00000000;
	30087 :	00000001;
	30086 :	00010110;
	30085 :	00100010;
	30084 :	00010010;
	30083 :	00000100;
	30082 :	11110101;
	30081 :	11110110;
	30080 :	11111000;
	30079 :	11110101;
	30078 :	11110100;
	30077 :	11010010;
	30076 :	11001100;
	30075 :	11010110;
	30074 :	11011100;
	30073 :	11101000;
	30072 :	11101001;
	30071 :	00000011;
	30070 :	00001110;
	30069 :	00101110;
	30068 :	00101111;
	30067 :	01000011;
	30066 :	01000111;
	30065 :	00000010;
	30064 :	11110110;
	30063 :	11111100;
	30062 :	11111110;
	30061 :	00000000;
	30060 :	00000000;
	30059 :	00000011;
	30058 :	00010011;
	30057 :	00100001;
	30056 :	11111101;
	30055 :	11111111;
	30054 :	00000010;
	30053 :	00000001;
	30052 :	11111001;
	30051 :	11101000;
	30050 :	11010111;
	30049 :	11100110;
	30048 :	11010110;
	30047 :	11011100;
	30046 :	11010111;
	30045 :	11011001;
	30044 :	11001001;
	30043 :	11011010;
	30042 :	00010110;
	30041 :	00011000;
	30040 :	00011101;
	30039 :	01000000;
	30038 :	00010011;
	30037 :	11101111;
	30036 :	11110111;
	30035 :	11111100;
	30034 :	11111110;
	30033 :	00000001;
	30032 :	00000000;
	30031 :	00000000;
	30030 :	00001110;
	30029 :	00100011;
	30028 :	00000011;
	30027 :	00001011;
	30026 :	00001000;
	30025 :	00000010;
	30024 :	11100001;
	30023 :	11100010;
	30022 :	11101101;
	30021 :	00000100;
	30020 :	11100110;
	30019 :	11101111;
	30018 :	11001011;
	30017 :	11010100;
	30016 :	11010001;
	30015 :	11111110;
	30014 :	00010100;
	30013 :	00010101;
	30012 :	00001111;
	30011 :	00101100;
	30010 :	00010110;
	30009 :	11110111;
	30008 :	11111111;
	30007 :	11111110;
	30006 :	00000000;
	30005 :	00000000;
	30004 :	00000000;
	30003 :	00000001;
	30002 :	00001111;
	30001 :	00011101;
	30000 :	00010101;
	29999 :	00011101;
	29998 :	00010110;
	29997 :	11111101;
	29996 :	11101111;
	29995 :	11100110;
	29994 :	11111000;
	29993 :	11111001;
	29992 :	11110100;
	29991 :	11101110;
	29990 :	11100101;
	29989 :	11011111;
	29988 :	11101111;
	29987 :	00000010;
	29986 :	00011011;
	29985 :	00011100;
	29984 :	00011001;
	29983 :	00001001;
	29982 :	00001011;
	29981 :	11111000;
	29980 :	11111100;
	29979 :	11111101;
	29978 :	00000000;
	29977 :	00000000;
	29976 :	00000000;
	29975 :	00000001;
	29974 :	00010100;
	29973 :	00110010;
	29972 :	00011100;
	29971 :	00010100;
	29970 :	00001011;
	29969 :	11111001;
	29968 :	11101010;
	29967 :	11100101;
	29966 :	11111010;
	29965 :	11101000;
	29964 :	11110110;
	29963 :	11101110;
	29962 :	11101101;
	29961 :	11110010;
	29960 :	00000110;
	29959 :	00010000;
	29958 :	00000110;
	29957 :	00001111;
	29956 :	00000000;
	29955 :	00010010;
	29954 :	11111111;
	29953 :	11110111;
	29952 :	11111100;
	29951 :	11111110;
	29950 :	00000000;
	29949 :	00000000;
	29948 :	00000000;
	29947 :	00000010;
	29946 :	00001100;
	29945 :	00011010;
	29944 :	00001111;
	29943 :	00001000;
	29942 :	00000010;
	29941 :	11101100;
	29940 :	11101010;
	29939 :	11101011;
	29938 :	11111110;
	29937 :	11110011;
	29936 :	11100011;
	29935 :	11110010;
	29934 :	11110000;
	29933 :	00000001;
	29932 :	00001011;
	29931 :	00011100;
	29930 :	00100001;
	29929 :	00011001;
	29928 :	00001100;
	29927 :	11110101;
	29926 :	11111001;
	29925 :	11111100;
	29924 :	00000000;
	29923 :	00000000;
	29922 :	00000000;
	29921 :	00000000;
	29920 :	00000000;
	29919 :	00000010;
	29918 :	00000110;
	29917 :	00010000;
	29916 :	00001011;
	29915 :	00000110;
	29914 :	11110111;
	29913 :	11110110;
	29912 :	11101101;
	29911 :	11110001;
	29910 :	11101011;
	29909 :	11111101;
	29908 :	11100100;
	29907 :	11101000;
	29906 :	11101110;
	29905 :	11111010;
	29904 :	00001111;
	29903 :	00010001;
	29902 :	00001111;
	29901 :	11111010;
	29900 :	11110011;
	29899 :	11110010;
	29898 :	11110110;
	29897 :	11111100;
	29896 :	11111111;
	29895 :	00000000;
	29894 :	00000000;
	29893 :	00000000;
	29892 :	00000000;
	29891 :	00000000;
	29890 :	00000100;
	29889 :	00001001;
	29888 :	00001011;
	29887 :	00000001;
	29886 :	11111110;
	29885 :	11111010;
	29884 :	11110100;
	29883 :	11110011;
	29882 :	11101010;
	29881 :	11101101;
	29880 :	11111010;
	29879 :	11101100;
	29878 :	11111000;
	29877 :	00000110;
	29876 :	00010100;
	29875 :	00010100;
	29874 :	00001100;
	29873 :	11111101;
	29872 :	11110011;
	29871 :	11111001;
	29870 :	11110111;
	29869 :	11111111;
	29868 :	00000000;
	29867 :	11111111;
	29866 :	00000000;
	29865 :	00000000;
	29864 :	00000000;
	29863 :	00000000;
	29862 :	00000010;
	29861 :	00000100;
	29860 :	00000001;
	29859 :	00000001;
	29858 :	11111100;
	29857 :	11111011;
	29856 :	11111001;
	29855 :	11110011;
	29854 :	11110100;
	29853 :	11110101;
	29852 :	11111001;
	29851 :	11111111;
	29850 :	11111100;
	29849 :	00000001;
	29848 :	00001001;
	29847 :	11111100;
	29846 :	11111010;
	29845 :	11110110;
	29844 :	11110110;
	29843 :	11111000;
	29842 :	11111011;
	29841 :	00000000;
	29840 :	00000000;
	29839 :	00000000;
	29838 :	00000000;
	29837 :	00000000;
	29836 :	00000000;
	29835 :	00000000;
	29834 :	00000001;
	29833 :	00000001;
	29832 :	00000001;
	29831 :	11111101;
	29830 :	11111100;
	29829 :	11111011;
	29828 :	11111011;
	29827 :	11110110;
	29826 :	11110111;
	29825 :	11111001;
	29824 :	11111110;
	29823 :	11111000;
	29822 :	11111001;
	29821 :	00000001;
	29820 :	11111110;
	29819 :	00000001;
	29818 :	11111010;
	29817 :	11110110;
	29816 :	11111000;
	29815 :	11111100;
	29814 :	11111111;
	29813 :	00000000;
	29812 :	00000000;
	29811 :	00000000;
	29810 :	00000000;
	29809 :	00000000;
	29808 :	00000000;
	29807 :	00000000;
	29806 :	00000000;
	29805 :	00000000;
	29804 :	00000000;
	29803 :	11111111;
	29802 :	11111111;
	29801 :	11111101;
	29800 :	11111101;
	29799 :	11111100;
	29798 :	11111011;
	29797 :	11111100;
	29796 :	11111110;
	29795 :	00000001;
	29794 :	00000100;
	29793 :	00000011;
	29792 :	00000010;
	29791 :	00000101;
	29790 :	00000110;
	29789 :	00000100;
	29788 :	00000001;
	29787 :	00000001;
	29786 :	00000001;
	29785 :	00000000;
	29784 :	00000000;
	29783 :	00000000;
	29782 :	00000000;
	29781 :	00000000;
	29780 :	00000000;
	29779 :	00000000;
	29778 :	00000000;
	29777 :	00000000;
	29776 :	00000000;
	29775 :	00000000;
	29774 :	00000000;
	29773 :	00000000;
	29772 :	00000000;
	29771 :	00000000;
	29770 :	00000000;
	29769 :	11111111;
	29768 :	11111111;
	29767 :	00000000;
	29766 :	00000000;
	29765 :	00000001;
	29764 :	00000011;
	29763 :	00000100;
	29762 :	00000101;
	29761 :	00000011;
	29760 :	00000001;
	29759 :	00000000;
	29758 :	00000000;
	29757 :	00000000;
	29756 :	00000000;
	29755 :	00000000;
	29754 :	00000000;
	29753 :	00000000;
	29752 :	00000000;
	29751 :	00000000;
	29750 :	00000000;
	29749 :	00000000;
	29748 :	00000000;
	29747 :	00000000;
	29746 :	00000000;
	29745 :	00000000;
	29744 :	00000000;
	29743 :	00000000;
	29742 :	00000000;
	29741 :	00000000;
	29740 :	00000000;
	29739 :	00000000;
	29738 :	00000001;
	29737 :	00000001;
	29736 :	00000000;
	29735 :	00000001;
	29734 :	00000001;
	29733 :	00000001;
	29732 :	00000001;
	29731 :	00000000;
	29730 :	00000000;
	29729 :	00000000;
	29728 :	00000000;
	29727 :	00000000;
	29726 :	00000000;
	29725 :	00000000;
	29724 :	00000000;
	29723 :	00000000;
	29722 :	00000000;
	29721 :	00000000;
	29720 :	00000000;
	29719 :	00000000;
	29718 :	00000000;
	29717 :	00000000;
	29716 :	00000000;
	29715 :	00000000;
	29714 :	00000000;
	29713 :	00000000;
	29712 :	00000000;
	29711 :	00000000;
	29710 :	00000000;
	29709 :	00000000;
	29708 :	00000000;
	29707 :	00000000;
	29706 :	00000000;
	29705 :	00000000;
	29704 :	00000000;
	29703 :	00000000;
	29702 :	00000000;
	29701 :	00000000;
	29700 :	00000000;
	29699 :	00000000;
	29698 :	00000000;
	29697 :	00000000;
	29696 :	00000000;
	29695 :	XXXXXXXX;
	29694 :	XXXXXXXX;
	29693 :	XXXXXXXX;
	29692 :	XXXXXXXX;
	29691 :	XXXXXXXX;
	29690 :	XXXXXXXX;
	29689 :	XXXXXXXX;
	29688 :	XXXXXXXX;
	29687 :	XXXXXXXX;
	29686 :	XXXXXXXX;
	29685 :	XXXXXXXX;
	29684 :	XXXXXXXX;
	29683 :	XXXXXXXX;
	29682 :	XXXXXXXX;
	29681 :	XXXXXXXX;
	29680 :	XXXXXXXX;
	29679 :	XXXXXXXX;
	29678 :	XXXXXXXX;
	29677 :	XXXXXXXX;
	29676 :	XXXXXXXX;
	29675 :	XXXXXXXX;
	29674 :	XXXXXXXX;
	29673 :	XXXXXXXX;
	29672 :	XXXXXXXX;
	29671 :	XXXXXXXX;
	29670 :	XXXXXXXX;
	29669 :	XXXXXXXX;
	29668 :	XXXXXXXX;
	29667 :	XXXXXXXX;
	29666 :	XXXXXXXX;
	29665 :	XXXXXXXX;
	29664 :	XXXXXXXX;
	29663 :	XXXXXXXX;
	29662 :	XXXXXXXX;
	29661 :	XXXXXXXX;
	29660 :	XXXXXXXX;
	29659 :	XXXXXXXX;
	29658 :	XXXXXXXX;
	29657 :	XXXXXXXX;
	29656 :	XXXXXXXX;
	29655 :	XXXXXXXX;
	29654 :	XXXXXXXX;
	29653 :	XXXXXXXX;
	29652 :	XXXXXXXX;
	29651 :	XXXXXXXX;
	29650 :	XXXXXXXX;
	29649 :	XXXXXXXX;
	29648 :	XXXXXXXX;
	29647 :	XXXXXXXX;
	29646 :	XXXXXXXX;
	29645 :	XXXXXXXX;
	29644 :	XXXXXXXX;
	29643 :	XXXXXXXX;
	29642 :	XXXXXXXX;
	29641 :	XXXXXXXX;
	29640 :	XXXXXXXX;
	29639 :	XXXXXXXX;
	29638 :	XXXXXXXX;
	29637 :	XXXXXXXX;
	29636 :	XXXXXXXX;
	29635 :	XXXXXXXX;
	29634 :	XXXXXXXX;
	29633 :	XXXXXXXX;
	29632 :	XXXXXXXX;
	29631 :	XXXXXXXX;
	29630 :	XXXXXXXX;
	29629 :	XXXXXXXX;
	29628 :	XXXXXXXX;
	29627 :	XXXXXXXX;
	29626 :	XXXXXXXX;
	29625 :	XXXXXXXX;
	29624 :	XXXXXXXX;
	29623 :	XXXXXXXX;
	29622 :	XXXXXXXX;
	29621 :	XXXXXXXX;
	29620 :	XXXXXXXX;
	29619 :	XXXXXXXX;
	29618 :	XXXXXXXX;
	29617 :	XXXXXXXX;
	29616 :	XXXXXXXX;
	29615 :	XXXXXXXX;
	29614 :	XXXXXXXX;
	29613 :	XXXXXXXX;
	29612 :	XXXXXXXX;
	29611 :	XXXXXXXX;
	29610 :	XXXXXXXX;
	29609 :	XXXXXXXX;
	29608 :	XXXXXXXX;
	29607 :	XXXXXXXX;
	29606 :	XXXXXXXX;
	29605 :	XXXXXXXX;
	29604 :	XXXXXXXX;
	29603 :	XXXXXXXX;
	29602 :	XXXXXXXX;
	29601 :	XXXXXXXX;
	29600 :	XXXXXXXX;
	29599 :	XXXXXXXX;
	29598 :	XXXXXXXX;
	29597 :	XXXXXXXX;
	29596 :	XXXXXXXX;
	29595 :	XXXXXXXX;
	29594 :	XXXXXXXX;
	29593 :	XXXXXXXX;
	29592 :	XXXXXXXX;
	29591 :	XXXXXXXX;
	29590 :	XXXXXXXX;
	29589 :	XXXXXXXX;
	29588 :	XXXXXXXX;
	29587 :	XXXXXXXX;
	29586 :	XXXXXXXX;
	29585 :	XXXXXXXX;
	29584 :	XXXXXXXX;
	29583 :	XXXXXXXX;
	29582 :	XXXXXXXX;
	29581 :	XXXXXXXX;
	29580 :	XXXXXXXX;
	29579 :	XXXXXXXX;
	29578 :	XXXXXXXX;
	29577 :	XXXXXXXX;
	29576 :	XXXXXXXX;
	29575 :	XXXXXXXX;
	29574 :	XXXXXXXX;
	29573 :	XXXXXXXX;
	29572 :	XXXXXXXX;
	29571 :	XXXXXXXX;
	29570 :	XXXXXXXX;
	29569 :	XXXXXXXX;
	29568 :	XXXXXXXX;
	29567 :	XXXXXXXX;
	29566 :	XXXXXXXX;
	29565 :	XXXXXXXX;
	29564 :	XXXXXXXX;
	29563 :	XXXXXXXX;
	29562 :	XXXXXXXX;
	29561 :	XXXXXXXX;
	29560 :	XXXXXXXX;
	29559 :	XXXXXXXX;
	29558 :	XXXXXXXX;
	29557 :	XXXXXXXX;
	29556 :	XXXXXXXX;
	29555 :	XXXXXXXX;
	29554 :	XXXXXXXX;
	29553 :	XXXXXXXX;
	29552 :	XXXXXXXX;
	29551 :	XXXXXXXX;
	29550 :	XXXXXXXX;
	29549 :	XXXXXXXX;
	29548 :	XXXXXXXX;
	29547 :	XXXXXXXX;
	29546 :	XXXXXXXX;
	29545 :	XXXXXXXX;
	29544 :	XXXXXXXX;
	29543 :	XXXXXXXX;
	29542 :	XXXXXXXX;
	29541 :	XXXXXXXX;
	29540 :	XXXXXXXX;
	29539 :	XXXXXXXX;
	29538 :	XXXXXXXX;
	29537 :	XXXXXXXX;
	29536 :	XXXXXXXX;
	29535 :	XXXXXXXX;
	29534 :	XXXXXXXX;
	29533 :	XXXXXXXX;
	29532 :	XXXXXXXX;
	29531 :	XXXXXXXX;
	29530 :	XXXXXXXX;
	29529 :	XXXXXXXX;
	29528 :	XXXXXXXX;
	29527 :	XXXXXXXX;
	29526 :	XXXXXXXX;
	29525 :	XXXXXXXX;
	29524 :	XXXXXXXX;
	29523 :	XXXXXXXX;
	29522 :	XXXXXXXX;
	29521 :	XXXXXXXX;
	29520 :	XXXXXXXX;
	29519 :	XXXXXXXX;
	29518 :	XXXXXXXX;
	29517 :	XXXXXXXX;
	29516 :	XXXXXXXX;
	29515 :	XXXXXXXX;
	29514 :	XXXXXXXX;
	29513 :	XXXXXXXX;
	29512 :	XXXXXXXX;
	29511 :	XXXXXXXX;
	29510 :	XXXXXXXX;
	29509 :	XXXXXXXX;
	29508 :	XXXXXXXX;
	29507 :	XXXXXXXX;
	29506 :	XXXXXXXX;
	29505 :	XXXXXXXX;
	29504 :	XXXXXXXX;
	29503 :	XXXXXXXX;
	29502 :	XXXXXXXX;
	29501 :	XXXXXXXX;
	29500 :	XXXXXXXX;
	29499 :	XXXXXXXX;
	29498 :	XXXXXXXX;
	29497 :	XXXXXXXX;
	29496 :	XXXXXXXX;
	29495 :	XXXXXXXX;
	29494 :	XXXXXXXX;
	29493 :	XXXXXXXX;
	29492 :	XXXXXXXX;
	29491 :	XXXXXXXX;
	29490 :	XXXXXXXX;
	29489 :	XXXXXXXX;
	29488 :	XXXXXXXX;
	29487 :	XXXXXXXX;
	29486 :	XXXXXXXX;
	29485 :	XXXXXXXX;
	29484 :	XXXXXXXX;
	29483 :	XXXXXXXX;
	29482 :	XXXXXXXX;
	29481 :	XXXXXXXX;
	29480 :	XXXXXXXX;
	29479 :	XXXXXXXX;
	29478 :	XXXXXXXX;
	29477 :	XXXXXXXX;
	29476 :	XXXXXXXX;
	29475 :	XXXXXXXX;
	29474 :	XXXXXXXX;
	29473 :	XXXXXXXX;
	29472 :	XXXXXXXX;
	29471 :	XXXXXXXX;
	29470 :	XXXXXXXX;
	29469 :	XXXXXXXX;
	29468 :	XXXXXXXX;
	29467 :	XXXXXXXX;
	29466 :	XXXXXXXX;
	29465 :	XXXXXXXX;
	29464 :	XXXXXXXX;
	29463 :	XXXXXXXX;
	29462 :	XXXXXXXX;
	29461 :	XXXXXXXX;
	29460 :	XXXXXXXX;
	29459 :	XXXXXXXX;
	29458 :	XXXXXXXX;
	29457 :	XXXXXXXX;
	29456 :	XXXXXXXX;
	29455 :	00000000;
	29454 :	00000000;
	29453 :	00000000;
	29452 :	00000000;
	29451 :	00000000;
	29450 :	00000000;
	29449 :	00000000;
	29448 :	00000000;
	29447 :	00000000;
	29446 :	00000000;
	29445 :	00000000;
	29444 :	00000010;
	29443 :	00000000;
	29442 :	00000000;
	29441 :	00000000;
	29440 :	00000000;
	29439 :	00000000;
	29438 :	00000000;
	29437 :	00000000;
	29436 :	00000000;
	29435 :	00000000;
	29434 :	00000000;
	29433 :	00000000;
	29432 :	00000000;
	29431 :	00000000;
	29430 :	00000000;
	29429 :	00000000;
	29428 :	00000000;
	29427 :	00000000;
	29426 :	00000000;
	29425 :	00000000;
	29424 :	00000000;
	29423 :	00000000;
	29422 :	00000000;
	29421 :	00000000;
	29420 :	00000000;
	29419 :	00000010;
	29418 :	00000001;
	29417 :	00000011;
	29416 :	00000110;
	29415 :	00000011;
	29414 :	00000011;
	29413 :	00000001;
	29412 :	00000001;
	29411 :	00000000;
	29410 :	00000010;
	29409 :	00000001;
	29408 :	00000000;
	29407 :	00000000;
	29406 :	11111110;
	29405 :	00000000;
	29404 :	00000000;
	29403 :	00000000;
	29402 :	00000000;
	29401 :	00000000;
	29400 :	00000000;
	29399 :	00000000;
	29398 :	00000000;
	29397 :	00000000;
	29396 :	00000001;
	29395 :	00000001;
	29394 :	00000001;
	29393 :	00000011;
	29392 :	00000101;
	29391 :	00001001;
	29390 :	00001110;
	29389 :	00001100;
	29388 :	00001100;
	29387 :	00000011;
	29386 :	00000010;
	29385 :	00000110;
	29384 :	00000011;
	29383 :	00000011;
	29382 :	00000010;
	29381 :	11111101;
	29380 :	11110110;
	29379 :	11111010;
	29378 :	11111101;
	29377 :	11111111;
	29376 :	00000011;
	29375 :	00000010;
	29374 :	00000011;
	29373 :	00000000;
	29372 :	00000000;
	29371 :	00000000;
	29370 :	00000000;
	29369 :	00000000;
	29368 :	00000001;
	29367 :	11111111;
	29366 :	00000010;
	29365 :	00000110;
	29364 :	00001110;
	29363 :	00010001;
	29362 :	00011001;
	29361 :	00001011;
	29360 :	00000100;
	29359 :	11111010;
	29358 :	11101101;
	29357 :	11110100;
	29356 :	11111011;
	29355 :	11111110;
	29354 :	11111101;
	29353 :	11110010;
	29352 :	11101100;
	29351 :	11101111;
	29350 :	11110101;
	29349 :	11111011;
	29348 :	11111100;
	29347 :	11111110;
	29346 :	00000010;
	29345 :	00000000;
	29344 :	00000000;
	29343 :	00000000;
	29342 :	00000000;
	29341 :	00000000;
	29340 :	11111111;
	29339 :	11111110;
	29338 :	00000111;
	29337 :	00001100;
	29336 :	00010100;
	29335 :	00011011;
	29334 :	00011100;
	29333 :	00010011;
	29332 :	00000110;
	29331 :	11101000;
	29330 :	11100011;
	29329 :	11100001;
	29328 :	11101111;
	29327 :	11111110;
	29326 :	00000100;
	29325 :	11110010;
	29324 :	11101001;
	29323 :	11101000;
	29322 :	11101100;
	29321 :	11110000;
	29320 :	11110100;
	29319 :	11111010;
	29318 :	11111111;
	29317 :	00000000;
	29316 :	00000000;
	29315 :	00000000;
	29314 :	00000000;
	29313 :	11111111;
	29312 :	00000001;
	29311 :	00000001;
	29310 :	00001010;
	29309 :	00001001;
	29308 :	00010101;
	29307 :	00100001;
	29306 :	00100001;
	29305 :	00010000;
	29304 :	00000000;
	29303 :	11100100;
	29302 :	11100100;
	29301 :	11100101;
	29300 :	11101100;
	29299 :	00000000;
	29298 :	00001010;
	29297 :	00001010;
	29296 :	00001000;
	29295 :	11111011;
	29294 :	11101100;
	29293 :	11101110;
	29292 :	11101111;
	29291 :	11110101;
	29290 :	11111110;
	29289 :	00000000;
	29288 :	00000000;
	29287 :	00000000;
	29286 :	11111111;
	29285 :	11111011;
	29284 :	11111011;
	29283 :	11111100;
	29282 :	11111110;
	29281 :	00001000;
	29280 :	00010111;
	29279 :	00010101;
	29278 :	00010010;
	29277 :	00001000;
	29276 :	11111000;
	29275 :	11110011;
	29274 :	11101100;
	29273 :	11101001;
	29272 :	11111011;
	29271 :	11111101;
	29270 :	00010011;
	29269 :	00001011;
	29268 :	00010000;
	29267 :	11111111;
	29266 :	11111000;
	29265 :	11101111;
	29264 :	11101010;
	29263 :	11110001;
	29262 :	11111101;
	29261 :	00000000;
	29260 :	00000000;
	29259 :	00000000;
	29258 :	11111111;
	29257 :	11111100;
	29256 :	11110110;
	29255 :	11111110;
	29254 :	00000110;
	29253 :	00001110;
	29252 :	00010010;
	29251 :	00001110;
	29250 :	00001000;
	29249 :	00000101;
	29248 :	11110100;
	29247 :	11101100;
	29246 :	11101011;
	29245 :	11101110;
	29244 :	00000011;
	29243 :	00000110;
	29242 :	00001111;
	29241 :	00010001;
	29240 :	00001110;
	29239 :	00001001;
	29238 :	00000000;
	29237 :	11110101;
	29236 :	11101101;
	29235 :	11101101;
	29234 :	11111001;
	29233 :	11111110;
	29232 :	00000000;
	29231 :	00000000;
	29230 :	11111111;
	29229 :	11111010;
	29228 :	11111110;
	29227 :	00000010;
	29226 :	00000111;
	29225 :	00010000;
	29224 :	00001100;
	29223 :	00000100;
	29222 :	00000001;
	29221 :	11111111;
	29220 :	11101110;
	29219 :	11101011;
	29218 :	11100100;
	29217 :	11111000;
	29216 :	00011000;
	29215 :	00010010;
	29214 :	00011010;
	29213 :	00010110;
	29212 :	00001110;
	29211 :	00000100;
	29210 :	11111001;
	29209 :	11111100;
	29208 :	11110000;
	29207 :	11101011;
	29206 :	11110111;
	29205 :	00000000;
	29204 :	00000000;
	29203 :	11111111;
	29202 :	11111111;
	29201 :	11111101;
	29200 :	11111110;
	29199 :	00001001;
	29198 :	00000111;
	29197 :	00001011;
	29196 :	00000101;
	29195 :	00000101;
	29194 :	00001001;
	29193 :	11111111;
	29192 :	11101001;
	29191 :	11110010;
	29190 :	11111101;
	29189 :	00000011;
	29188 :	11111110;
	29187 :	00001000;
	29186 :	00010111;
	29185 :	00010100;
	29184 :	00000110;
	29183 :	11111110;
	29182 :	11111010;
	29181 :	00001101;
	29180 :	11110100;
	29179 :	11110101;
	29178 :	11110111;
	29177 :	00000000;
	29176 :	00000000;
	29175 :	00000000;
	29174 :	11111111;
	29173 :	11111100;
	29172 :	11110111;
	29171 :	11111011;
	29170 :	00000011;
	29169 :	11110011;
	29168 :	11110001;
	29167 :	00000111;
	29166 :	00000000;
	29165 :	11111110;
	29164 :	00000000;
	29163 :	11101111;
	29162 :	00000011;
	29161 :	11110100;
	29160 :	11111011;
	29159 :	00001001;
	29158 :	00001010;
	29157 :	00001110;
	29156 :	11111001;
	29155 :	11111010;
	29154 :	00001000;
	29153 :	00001101;
	29152 :	11110101;
	29151 :	11111000;
	29150 :	11111111;
	29149 :	00000000;
	29148 :	00000000;
	29147 :	00000000;
	29146 :	11111110;
	29145 :	11110101;
	29144 :	11110111;
	29143 :	11111101;
	29142 :	11110001;
	29141 :	11110100;
	29140 :	11110100;
	29139 :	11111000;
	29138 :	00000011;
	29137 :	00001001;
	29136 :	00000001;
	29135 :	11111100;
	29134 :	11110110;
	29133 :	11110011;
	29132 :	11101000;
	29131 :	11111110;
	29130 :	00001011;
	29129 :	11110111;
	29128 :	00000011;
	29127 :	11111100;
	29126 :	00011110;
	29125 :	00100000;
	29124 :	11111111;
	29123 :	11110100;
	29122 :	00000000;
	29121 :	00000101;
	29120 :	00000000;
	29119 :	00000000;
	29118 :	11111101;
	29117 :	11110010;
	29116 :	11110111;
	29115 :	11111010;
	29114 :	11101111;
	29113 :	11101000;
	29112 :	11110101;
	29111 :	11101110;
	29110 :	11111101;
	29109 :	00001011;
	29108 :	11111011;
	29107 :	00001110;
	29106 :	00001100;
	29105 :	00000111;
	29104 :	00000010;
	29103 :	00010000;
	29102 :	00000110;
	29101 :	00001010;
	29100 :	00010101;
	29099 :	00000001;
	29098 :	00010100;
	29097 :	00011111;
	29096 :	00011011;
	29095 :	11111001;
	29094 :	00000100;
	29093 :	00000010;
	29092 :	00000000;
	29091 :	00000000;
	29090 :	11111011;
	29089 :	11111001;
	29088 :	11111011;
	29087 :	11111000;
	29086 :	11100111;
	29085 :	11011101;
	29084 :	11101011;
	29083 :	00001001;
	29082 :	00001100;
	29081 :	00000111;
	29080 :	00001111;
	29079 :	00011010;
	29078 :	00110001;
	29077 :	00101100;
	29076 :	00110111;
	29075 :	00011001;
	29074 :	00000111;
	29073 :	00011100;
	29072 :	00011111;
	29071 :	00010010;
	29070 :	00011011;
	29069 :	00110000;
	29068 :	00100011;
	29067 :	00001100;
	29066 :	11111100;
	29065 :	00000010;
	29064 :	00000000;
	29063 :	00000000;
	29062 :	11111101;
	29061 :	11111001;
	29060 :	11111110;
	29059 :	00000001;
	29058 :	11101100;
	29057 :	11011011;
	29056 :	11100001;
	29055 :	11110110;
	29054 :	00000110;
	29053 :	00000101;
	29052 :	00011010;
	29051 :	00100111;
	29050 :	00101001;
	29049 :	00011100;
	29048 :	00001000;
	29047 :	11101010;
	29046 :	11101100;
	29045 :	00010100;
	29044 :	00011011;
	29043 :	00001010;
	29042 :	00100011;
	29041 :	00101111;
	29040 :	00101101;
	29039 :	00010011;
	29038 :	00000100;
	29037 :	11111111;
	29036 :	00000000;
	29035 :	00000000;
	29034 :	11111110;
	29033 :	11111101;
	29032 :	00000111;
	29031 :	00000110;
	29030 :	11111101;
	29029 :	11010100;
	29028 :	11100011;
	29027 :	11110001;
	29026 :	00000001;
	29025 :	00000101;
	29024 :	11111101;
	29023 :	00000101;
	29022 :	00000011;
	29021 :	11110111;
	29020 :	11010110;
	29019 :	11000110;
	29018 :	11010011;
	29017 :	00000000;
	29016 :	00010110;
	29015 :	00001000;
	29014 :	00010101;
	29013 :	00100111;
	29012 :	00101100;
	29011 :	00000111;
	29010 :	11111111;
	29009 :	11111111;
	29008 :	00000000;
	29007 :	00000000;
	29006 :	11111100;
	29005 :	11110110;
	29004 :	00000000;
	29003 :	00001010;
	29002 :	00000100;
	29001 :	11101100;
	29000 :	11110000;
	28999 :	11111111;
	28998 :	11110011;
	28997 :	11101101;
	28996 :	11110011;
	28995 :	11101010;
	28994 :	11100111;
	28993 :	11100000;
	28992 :	11010001;
	28991 :	11001101;
	28990 :	11001010;
	28989 :	11111010;
	28988 :	00000100;
	28987 :	11111100;
	28986 :	00001000;
	28985 :	00011100;
	28984 :	00101001;
	28983 :	00000101;
	28982 :	11111101;
	28981 :	11111111;
	28980 :	00000000;
	28979 :	00000000;
	28978 :	11111111;
	28977 :	11111010;
	28976 :	11110101;
	28975 :	00001100;
	28974 :	00000010;
	28973 :	00000000;
	28972 :	00000000;
	28971 :	00000011;
	28970 :	11111001;
	28969 :	11110101;
	28968 :	11110000;
	28967 :	11101110;
	28966 :	11100111;
	28965 :	11011011;
	28964 :	11011110;
	28963 :	11010010;
	28962 :	11100011;
	28961 :	11111101;
	28960 :	11111100;
	28959 :	11111001;
	28958 :	00001101;
	28957 :	00010010;
	28956 :	00011101;
	28955 :	00000110;
	28954 :	11111101;
	28953 :	00000000;
	28952 :	00000000;
	28951 :	00000000;
	28950 :	11111111;
	28949 :	11110111;
	28948 :	11111111;
	28947 :	00000101;
	28946 :	00001110;
	28945 :	00001011;
	28944 :	00010010;
	28943 :	00001111;
	28942 :	11111100;
	28941 :	11111011;
	28940 :	11111100;
	28939 :	11110111;
	28938 :	11101101;
	28937 :	11101000;
	28936 :	11011101;
	28935 :	11001001;
	28934 :	11011111;
	28933 :	00000101;
	28932 :	11111000;
	28931 :	11110111;
	28930 :	00001100;
	28929 :	00011010;
	28928 :	00010011;
	28927 :	00000010;
	28926 :	00000000;
	28925 :	00000000;
	28924 :	00000000;
	28923 :	00000000;
	28922 :	11111110;
	28921 :	11111001;
	28920 :	11111101;
	28919 :	00001100;
	28918 :	00001010;
	28917 :	00001011;
	28916 :	00011001;
	28915 :	00010011;
	28914 :	00001100;
	28913 :	00000010;
	28912 :	11110101;
	28911 :	11111101;
	28910 :	11111011;
	28909 :	11100000;
	28908 :	11000000;
	28907 :	11001010;
	28906 :	11011101;
	28905 :	11110100;
	28904 :	11110100;
	28903 :	00000111;
	28902 :	00000101;
	28901 :	00010000;
	28900 :	00001100;
	28899 :	00000001;
	28898 :	00000000;
	28897 :	00000000;
	28896 :	00000000;
	28895 :	00000000;
	28894 :	11111110;
	28893 :	11111000;
	28892 :	11111111;
	28891 :	00010010;
	28890 :	00011101;
	28889 :	00011000;
	28888 :	00100010;
	28887 :	00011000;
	28886 :	00010001;
	28885 :	00000010;
	28884 :	00000101;
	28883 :	11110110;
	28882 :	11100101;
	28881 :	11000011;
	28880 :	10110110;
	28879 :	11000011;
	28878 :	11100010;
	28877 :	11111110;
	28876 :	11110001;
	28875 :	11111111;
	28874 :	00010100;
	28873 :	00010001;
	28872 :	00000111;
	28871 :	11111111;
	28870 :	00000000;
	28869 :	00000000;
	28868 :	00000000;
	28867 :	00000000;
	28866 :	11111110;
	28865 :	11111110;
	28864 :	11111100;
	28863 :	00010000;
	28862 :	00011010;
	28861 :	00011010;
	28860 :	00011100;
	28859 :	00010111;
	28858 :	00100001;
	28857 :	00010011;
	28856 :	00000011;
	28855 :	11110010;
	28854 :	11011010;
	28853 :	11000010;
	28852 :	11000100;
	28851 :	11011010;
	28850 :	11111000;
	28849 :	00000000;
	28848 :	00001010;
	28847 :	00010100;
	28846 :	00010001;
	28845 :	00001111;
	28844 :	00000101;
	28843 :	11111111;
	28842 :	00000000;
	28841 :	00000000;
	28840 :	00000000;
	28839 :	00000000;
	28838 :	00000000;
	28837 :	00000001;
	28836 :	00000011;
	28835 :	00001001;
	28834 :	00010011;
	28833 :	00010101;
	28832 :	00010111;
	28831 :	00010101;
	28830 :	00011100;
	28829 :	00010011;
	28828 :	00000010;
	28827 :	11101011;
	28826 :	11011011;
	28825 :	11010101;
	28824 :	11011111;
	28823 :	11101011;
	28822 :	00000000;
	28821 :	00001010;
	28820 :	00001111;
	28819 :	00001101;
	28818 :	00001111;
	28817 :	00000111;
	28816 :	00000000;
	28815 :	00000000;
	28814 :	00000000;
	28813 :	00000000;
	28812 :	00000000;
	28811 :	00000000;
	28810 :	00000000;
	28809 :	00000000;
	28808 :	00000000;
	28807 :	00001000;
	28806 :	00001110;
	28805 :	00010011;
	28804 :	00011010;
	28803 :	00011011;
	28802 :	00011010;
	28801 :	00010111;
	28800 :	00010001;
	28799 :	00000100;
	28798 :	11111011;
	28797 :	11110100;
	28796 :	11110111;
	28795 :	11111110;
	28794 :	00000101;
	28793 :	00001010;
	28792 :	00001110;
	28791 :	00001011;
	28790 :	00001010;
	28789 :	00000011;
	28788 :	00000000;
	28787 :	00000000;
	28786 :	00000000;
	28785 :	00000000;
	28784 :	00000000;
	28783 :	00000000;
	28782 :	00000000;
	28781 :	00000000;
	28780 :	00000000;
	28779 :	00000100;
	28778 :	00000101;
	28777 :	00001001;
	28776 :	00001011;
	28775 :	00001001;
	28774 :	00001100;
	28773 :	00001010;
	28772 :	00000110;
	28771 :	00000000;
	28770 :	11111110;
	28769 :	11111101;
	28768 :	11111110;
	28767 :	00000000;
	28766 :	00000011;
	28765 :	00000011;
	28764 :	00000011;
	28763 :	00000011;
	28762 :	00000011;
	28761 :	00000001;
	28760 :	00000000;
	28759 :	00000000;
	28758 :	00000000;
	28757 :	00000000;
	28756 :	00000000;
	28755 :	00000000;
	28754 :	00000000;
	28753 :	00000000;
	28752 :	00000000;
	28751 :	00000000;
	28750 :	00000001;
	28749 :	00000010;
	28748 :	00000001;
	28747 :	00000000;
	28746 :	00000001;
	28745 :	00000000;
	28744 :	00000000;
	28743 :	00000000;
	28742 :	00000000;
	28741 :	00000000;
	28740 :	00000000;
	28739 :	00000001;
	28738 :	00000000;
	28737 :	00000000;
	28736 :	00000000;
	28735 :	00000000;
	28734 :	00000000;
	28733 :	00000000;
	28732 :	00000001;
	28731 :	00000000;
	28730 :	00000000;
	28729 :	00000000;
	28728 :	00000000;
	28727 :	00000000;
	28726 :	00000000;
	28725 :	00000000;
	28724 :	00000000;
	28723 :	00000000;
	28722 :	00000000;
	28721 :	00000000;
	28720 :	00000000;
	28719 :	00000000;
	28718 :	00000000;
	28717 :	00000000;
	28716 :	00000000;
	28715 :	00000000;
	28714 :	00000000;
	28713 :	00000000;
	28712 :	00000000;
	28711 :	00000000;
	28710 :	00000000;
	28709 :	00000000;
	28708 :	00000000;
	28707 :	00000000;
	28706 :	00000000;
	28705 :	00000000;
	28704 :	00000000;
	28703 :	00000000;
	28702 :	00000000;
	28701 :	00000000;
	28700 :	00000000;
	28699 :	00000000;
	28698 :	00000000;
	28697 :	00000000;
	28696 :	00000000;
	28695 :	00000000;
	28694 :	00000000;
	28693 :	00000000;
	28692 :	00000000;
	28691 :	00000000;
	28690 :	00000000;
	28689 :	00000000;
	28688 :	00000000;
	28687 :	00000000;
	28686 :	00000000;
	28685 :	00000000;
	28684 :	00000000;
	28683 :	00000000;
	28682 :	00000000;
	28681 :	00000000;
	28680 :	00000000;
	28679 :	00000000;
	28678 :	00000000;
	28677 :	00000000;
	28676 :	00000000;
	28675 :	00000000;
	28674 :	00000000;
	28673 :	00000000;
	28672 :	00000000;
	28671 :	XXXXXXXX;
	28670 :	XXXXXXXX;
	28669 :	XXXXXXXX;
	28668 :	XXXXXXXX;
	28667 :	XXXXXXXX;
	28666 :	XXXXXXXX;
	28665 :	XXXXXXXX;
	28664 :	XXXXXXXX;
	28663 :	XXXXXXXX;
	28662 :	XXXXXXXX;
	28661 :	XXXXXXXX;
	28660 :	XXXXXXXX;
	28659 :	XXXXXXXX;
	28658 :	XXXXXXXX;
	28657 :	XXXXXXXX;
	28656 :	XXXXXXXX;
	28655 :	XXXXXXXX;
	28654 :	XXXXXXXX;
	28653 :	XXXXXXXX;
	28652 :	XXXXXXXX;
	28651 :	XXXXXXXX;
	28650 :	XXXXXXXX;
	28649 :	XXXXXXXX;
	28648 :	XXXXXXXX;
	28647 :	XXXXXXXX;
	28646 :	XXXXXXXX;
	28645 :	XXXXXXXX;
	28644 :	XXXXXXXX;
	28643 :	XXXXXXXX;
	28642 :	XXXXXXXX;
	28641 :	XXXXXXXX;
	28640 :	XXXXXXXX;
	28639 :	XXXXXXXX;
	28638 :	XXXXXXXX;
	28637 :	XXXXXXXX;
	28636 :	XXXXXXXX;
	28635 :	XXXXXXXX;
	28634 :	XXXXXXXX;
	28633 :	XXXXXXXX;
	28632 :	XXXXXXXX;
	28631 :	XXXXXXXX;
	28630 :	XXXXXXXX;
	28629 :	XXXXXXXX;
	28628 :	XXXXXXXX;
	28627 :	XXXXXXXX;
	28626 :	XXXXXXXX;
	28625 :	XXXXXXXX;
	28624 :	XXXXXXXX;
	28623 :	XXXXXXXX;
	28622 :	XXXXXXXX;
	28621 :	XXXXXXXX;
	28620 :	XXXXXXXX;
	28619 :	XXXXXXXX;
	28618 :	XXXXXXXX;
	28617 :	XXXXXXXX;
	28616 :	XXXXXXXX;
	28615 :	XXXXXXXX;
	28614 :	XXXXXXXX;
	28613 :	XXXXXXXX;
	28612 :	XXXXXXXX;
	28611 :	XXXXXXXX;
	28610 :	XXXXXXXX;
	28609 :	XXXXXXXX;
	28608 :	XXXXXXXX;
	28607 :	XXXXXXXX;
	28606 :	XXXXXXXX;
	28605 :	XXXXXXXX;
	28604 :	XXXXXXXX;
	28603 :	XXXXXXXX;
	28602 :	XXXXXXXX;
	28601 :	XXXXXXXX;
	28600 :	XXXXXXXX;
	28599 :	XXXXXXXX;
	28598 :	XXXXXXXX;
	28597 :	XXXXXXXX;
	28596 :	XXXXXXXX;
	28595 :	XXXXXXXX;
	28594 :	XXXXXXXX;
	28593 :	XXXXXXXX;
	28592 :	XXXXXXXX;
	28591 :	XXXXXXXX;
	28590 :	XXXXXXXX;
	28589 :	XXXXXXXX;
	28588 :	XXXXXXXX;
	28587 :	XXXXXXXX;
	28586 :	XXXXXXXX;
	28585 :	XXXXXXXX;
	28584 :	XXXXXXXX;
	28583 :	XXXXXXXX;
	28582 :	XXXXXXXX;
	28581 :	XXXXXXXX;
	28580 :	XXXXXXXX;
	28579 :	XXXXXXXX;
	28578 :	XXXXXXXX;
	28577 :	XXXXXXXX;
	28576 :	XXXXXXXX;
	28575 :	XXXXXXXX;
	28574 :	XXXXXXXX;
	28573 :	XXXXXXXX;
	28572 :	XXXXXXXX;
	28571 :	XXXXXXXX;
	28570 :	XXXXXXXX;
	28569 :	XXXXXXXX;
	28568 :	XXXXXXXX;
	28567 :	XXXXXXXX;
	28566 :	XXXXXXXX;
	28565 :	XXXXXXXX;
	28564 :	XXXXXXXX;
	28563 :	XXXXXXXX;
	28562 :	XXXXXXXX;
	28561 :	XXXXXXXX;
	28560 :	XXXXXXXX;
	28559 :	XXXXXXXX;
	28558 :	XXXXXXXX;
	28557 :	XXXXXXXX;
	28556 :	XXXXXXXX;
	28555 :	XXXXXXXX;
	28554 :	XXXXXXXX;
	28553 :	XXXXXXXX;
	28552 :	XXXXXXXX;
	28551 :	XXXXXXXX;
	28550 :	XXXXXXXX;
	28549 :	XXXXXXXX;
	28548 :	XXXXXXXX;
	28547 :	XXXXXXXX;
	28546 :	XXXXXXXX;
	28545 :	XXXXXXXX;
	28544 :	XXXXXXXX;
	28543 :	XXXXXXXX;
	28542 :	XXXXXXXX;
	28541 :	XXXXXXXX;
	28540 :	XXXXXXXX;
	28539 :	XXXXXXXX;
	28538 :	XXXXXXXX;
	28537 :	XXXXXXXX;
	28536 :	XXXXXXXX;
	28535 :	XXXXXXXX;
	28534 :	XXXXXXXX;
	28533 :	XXXXXXXX;
	28532 :	XXXXXXXX;
	28531 :	XXXXXXXX;
	28530 :	XXXXXXXX;
	28529 :	XXXXXXXX;
	28528 :	XXXXXXXX;
	28527 :	XXXXXXXX;
	28526 :	XXXXXXXX;
	28525 :	XXXXXXXX;
	28524 :	XXXXXXXX;
	28523 :	XXXXXXXX;
	28522 :	XXXXXXXX;
	28521 :	XXXXXXXX;
	28520 :	XXXXXXXX;
	28519 :	XXXXXXXX;
	28518 :	XXXXXXXX;
	28517 :	XXXXXXXX;
	28516 :	XXXXXXXX;
	28515 :	XXXXXXXX;
	28514 :	XXXXXXXX;
	28513 :	XXXXXXXX;
	28512 :	XXXXXXXX;
	28511 :	XXXXXXXX;
	28510 :	XXXXXXXX;
	28509 :	XXXXXXXX;
	28508 :	XXXXXXXX;
	28507 :	XXXXXXXX;
	28506 :	XXXXXXXX;
	28505 :	XXXXXXXX;
	28504 :	XXXXXXXX;
	28503 :	XXXXXXXX;
	28502 :	XXXXXXXX;
	28501 :	XXXXXXXX;
	28500 :	XXXXXXXX;
	28499 :	XXXXXXXX;
	28498 :	XXXXXXXX;
	28497 :	XXXXXXXX;
	28496 :	XXXXXXXX;
	28495 :	XXXXXXXX;
	28494 :	XXXXXXXX;
	28493 :	XXXXXXXX;
	28492 :	XXXXXXXX;
	28491 :	XXXXXXXX;
	28490 :	XXXXXXXX;
	28489 :	XXXXXXXX;
	28488 :	XXXXXXXX;
	28487 :	XXXXXXXX;
	28486 :	XXXXXXXX;
	28485 :	XXXXXXXX;
	28484 :	XXXXXXXX;
	28483 :	XXXXXXXX;
	28482 :	XXXXXXXX;
	28481 :	XXXXXXXX;
	28480 :	XXXXXXXX;
	28479 :	XXXXXXXX;
	28478 :	XXXXXXXX;
	28477 :	XXXXXXXX;
	28476 :	XXXXXXXX;
	28475 :	XXXXXXXX;
	28474 :	XXXXXXXX;
	28473 :	XXXXXXXX;
	28472 :	XXXXXXXX;
	28471 :	XXXXXXXX;
	28470 :	XXXXXXXX;
	28469 :	XXXXXXXX;
	28468 :	XXXXXXXX;
	28467 :	XXXXXXXX;
	28466 :	XXXXXXXX;
	28465 :	XXXXXXXX;
	28464 :	XXXXXXXX;
	28463 :	XXXXXXXX;
	28462 :	XXXXXXXX;
	28461 :	XXXXXXXX;
	28460 :	XXXXXXXX;
	28459 :	XXXXXXXX;
	28458 :	XXXXXXXX;
	28457 :	XXXXXXXX;
	28456 :	XXXXXXXX;
	28455 :	XXXXXXXX;
	28454 :	XXXXXXXX;
	28453 :	XXXXXXXX;
	28452 :	XXXXXXXX;
	28451 :	XXXXXXXX;
	28450 :	XXXXXXXX;
	28449 :	XXXXXXXX;
	28448 :	XXXXXXXX;
	28447 :	XXXXXXXX;
	28446 :	XXXXXXXX;
	28445 :	XXXXXXXX;
	28444 :	XXXXXXXX;
	28443 :	XXXXXXXX;
	28442 :	XXXXXXXX;
	28441 :	XXXXXXXX;
	28440 :	XXXXXXXX;
	28439 :	XXXXXXXX;
	28438 :	XXXXXXXX;
	28437 :	XXXXXXXX;
	28436 :	XXXXXXXX;
	28435 :	XXXXXXXX;
	28434 :	XXXXXXXX;
	28433 :	XXXXXXXX;
	28432 :	XXXXXXXX;
	28431 :	00000000;
	28430 :	00000000;
	28429 :	00000000;
	28428 :	00000000;
	28427 :	00000000;
	28426 :	00000000;
	28425 :	00000000;
	28424 :	00000000;
	28423 :	00000000;
	28422 :	00000000;
	28421 :	00000000;
	28420 :	00000000;
	28419 :	00000000;
	28418 :	00000000;
	28417 :	00000000;
	28416 :	00000000;
	28415 :	00000000;
	28414 :	11111111;
	28413 :	00000000;
	28412 :	11111111;
	28411 :	00000000;
	28410 :	00000000;
	28409 :	00000000;
	28408 :	00000000;
	28407 :	00000000;
	28406 :	00000000;
	28405 :	00000000;
	28404 :	00000000;
	28403 :	00000000;
	28402 :	00000000;
	28401 :	00000000;
	28400 :	00000000;
	28399 :	00000000;
	28398 :	00000000;
	28397 :	00000000;
	28396 :	00000000;
	28395 :	11111111;
	28394 :	00000000;
	28393 :	00000000;
	28392 :	00000000;
	28391 :	00000001;
	28390 :	00000000;
	28389 :	11111111;
	28388 :	11111110;
	28387 :	11111101;
	28386 :	11111011;
	28385 :	11111011;
	28384 :	11111001;
	28383 :	11111101;
	28382 :	11111101;
	28381 :	11111111;
	28380 :	11111111;
	28379 :	00000000;
	28378 :	00000000;
	28377 :	00000000;
	28376 :	00000000;
	28375 :	00000000;
	28374 :	00000000;
	28373 :	00000000;
	28372 :	00000000;
	28371 :	00000000;
	28370 :	11111111;
	28369 :	11111111;
	28368 :	00000000;
	28367 :	11111110;
	28366 :	11111110;
	28365 :	11111111;
	28364 :	11111110;
	28363 :	00000001;
	28362 :	00000001;
	28361 :	11111111;
	28360 :	11111100;
	28359 :	11110111;
	28358 :	11110100;
	28357 :	11101111;
	28356 :	11101101;
	28355 :	11110010;
	28354 :	11111001;
	28353 :	11111111;
	28352 :	11111110;
	28351 :	00000000;
	28350 :	00000000;
	28349 :	00000000;
	28348 :	00000000;
	28347 :	00000000;
	28346 :	00000000;
	28345 :	11111110;
	28344 :	11111101;
	28343 :	11111100;
	28342 :	11111110;
	28341 :	11111111;
	28340 :	11111101;
	28339 :	11111110;
	28338 :	11111011;
	28337 :	11111101;
	28336 :	00000100;
	28335 :	00001011;
	28334 :	00010100;
	28333 :	00001111;
	28332 :	00001010;
	28331 :	11111100;
	28330 :	11110010;
	28329 :	11100110;
	28328 :	11100100;
	28327 :	11110000;
	28326 :	11111011;
	28325 :	00000001;
	28324 :	11111111;
	28323 :	00000011;
	28322 :	00000000;
	28321 :	00000000;
	28320 :	00000000;
	28319 :	00000000;
	28318 :	00000000;
	28317 :	11111100;
	28316 :	11111100;
	28315 :	11111011;
	28314 :	11111101;
	28313 :	11111010;
	28312 :	11110101;
	28311 :	11110001;
	28310 :	11110101;
	28309 :	11111101;
	28308 :	00010000;
	28307 :	00011110;
	28306 :	00100001;
	28305 :	00100100;
	28304 :	00011000;
	28303 :	00001111;
	28302 :	11110110;
	28301 :	11110011;
	28300 :	11110010;
	28299 :	11111111;
	28298 :	00001000;
	28297 :	00000101;
	28296 :	00000000;
	28295 :	00000100;
	28294 :	00000001;
	28293 :	00000000;
	28292 :	00000000;
	28291 :	00000000;
	28290 :	00000000;
	28289 :	11111111;
	28288 :	11111011;
	28287 :	11111001;
	28286 :	11110111;
	28285 :	11101111;
	28284 :	11101010;
	28283 :	11101101;
	28282 :	11110110;
	28281 :	00001101;
	28280 :	00011011;
	28279 :	00100110;
	28278 :	00100010;
	28277 :	00011011;
	28276 :	00001111;
	28275 :	00000110;
	28274 :	00001011;
	28273 :	11111100;
	28272 :	11110011;
	28271 :	00000010;
	28270 :	00001000;
	28269 :	00000111;
	28268 :	00000101;
	28267 :	00000011;
	28266 :	00000000;
	28265 :	00000000;
	28264 :	00000000;
	28263 :	00000000;
	28262 :	11111101;
	28261 :	11110110;
	28260 :	11110110;
	28259 :	11110110;
	28258 :	11110101;
	28257 :	11101101;
	28256 :	11101010;
	28255 :	11110111;
	28254 :	00000010;
	28253 :	00010000;
	28252 :	00100001;
	28251 :	00100000;
	28250 :	00011100;
	28249 :	00010001;
	28248 :	00000110;
	28247 :	00000101;
	28246 :	00000001;
	28245 :	11111101;
	28244 :	11110010;
	28243 :	11110100;
	28242 :	00001000;
	28241 :	00001100;
	28240 :	00000111;
	28239 :	00000011;
	28238 :	00000001;
	28237 :	00000000;
	28236 :	00000000;
	28235 :	00000000;
	28234 :	11111010;
	28233 :	11110010;
	28232 :	11110011;
	28231 :	11110001;
	28230 :	11110000;
	28229 :	11101010;
	28228 :	11110110;
	28227 :	11110111;
	28226 :	00000010;
	28225 :	00001111;
	28224 :	00011000;
	28223 :	00001100;
	28222 :	00001101;
	28221 :	11111100;
	28220 :	11110011;
	28219 :	00001010;
	28218 :	00010100;
	28217 :	11110011;
	28216 :	11110111;
	28215 :	11100110;
	28214 :	11111110;
	28213 :	00001011;
	28212 :	00001000;
	28211 :	00001000;
	28210 :	00000011;
	28209 :	00000001;
	28208 :	00000000;
	28207 :	11111111;
	28206 :	11110100;
	28205 :	11101101;
	28204 :	11110101;
	28203 :	11111010;
	28202 :	11101110;
	28201 :	11110101;
	28200 :	00000101;
	28199 :	00000101;
	28198 :	00000110;
	28197 :	00001011;
	28196 :	00010110;
	28195 :	00011101;
	28194 :	00010000;
	28193 :	11111100;
	28192 :	11101101;
	28191 :	11111111;
	28190 :	00001010;
	28189 :	11101000;
	28188 :	11101001;
	28187 :	11100010;
	28186 :	11111000;
	28185 :	00001011;
	28184 :	00001000;
	28183 :	00001110;
	28182 :	00000100;
	28181 :	00000000;
	28180 :	00000000;
	28179 :	00000000;
	28178 :	11110110;
	28177 :	11101101;
	28176 :	11111101;
	28175 :	00000000;
	28174 :	11111101;
	28173 :	00000101;
	28172 :	00001111;
	28171 :	00010100;
	28170 :	00001011;
	28169 :	00010011;
	28168 :	00011111;
	28167 :	00001100;
	28166 :	00001000;
	28165 :	11100110;
	28164 :	11110010;
	28163 :	00001000;
	28162 :	11111111;
	28161 :	11110000;
	28160 :	11100101;
	28159 :	11101000;
	28158 :	11101001;
	28157 :	00010000;
	28156 :	00001000;
	28155 :	00001100;
	28154 :	00000100;
	28153 :	00000000;
	28152 :	00000000;
	28151 :	00000001;
	28150 :	11110111;
	28149 :	11101010;
	28148 :	11111101;
	28147 :	00000001;
	28146 :	00000111;
	28145 :	00010001;
	28144 :	00001011;
	28143 :	00001111;
	28142 :	00010100;
	28141 :	00011010;
	28140 :	00011011;
	28139 :	00010111;
	28138 :	11111011;
	28137 :	11110000;
	28136 :	11110111;
	28135 :	00001011;
	28134 :	00001101;
	28133 :	11101111;
	28132 :	11101001;
	28131 :	11100100;
	28130 :	11101101;
	28129 :	00001101;
	28128 :	00001100;
	28127 :	00001010;
	28126 :	00000010;
	28125 :	00000000;
	28124 :	00000000;
	28123 :	11111111;
	28122 :	11110010;
	28121 :	11100111;
	28120 :	11111111;
	28119 :	11111100;
	28118 :	00000010;
	28117 :	00001010;
	28116 :	00010111;
	28115 :	00001111;
	28114 :	00001001;
	28113 :	00010101;
	28112 :	00010111;
	28111 :	00010001;
	28110 :	00000000;
	28109 :	11110000;
	28108 :	00001010;
	28107 :	00010001;
	28106 :	00001001;
	28105 :	11111110;
	28104 :	11100000;
	28103 :	11010110;
	28102 :	11101100;
	28101 :	00000110;
	28100 :	00000111;
	28099 :	00001100;
	28098 :	00000010;
	28097 :	11111111;
	28096 :	00000000;
	28095 :	00000000;
	28094 :	11110011;
	28093 :	11101100;
	28092 :	11111001;
	28091 :	00000000;
	28090 :	11111111;
	28089 :	00011111;
	28088 :	00010010;
	28087 :	00001000;
	28086 :	00001111;
	28085 :	00010001;
	28084 :	00010101;
	28083 :	00000001;
	28082 :	11110110;
	28081 :	11011101;
	28080 :	11100010;
	28079 :	11101100;
	28078 :	11111001;
	28077 :	11101000;
	28076 :	11010100;
	28075 :	11001100;
	28074 :	11100000;
	28073 :	11111010;
	28072 :	11111011;
	28071 :	00001010;
	28070 :	00000001;
	28069 :	11111111;
	28068 :	00000000;
	28067 :	00000000;
	28066 :	11101111;
	28065 :	11110000;
	28064 :	11110001;
	28063 :	11110110;
	28062 :	00000101;
	28061 :	00011110;
	28060 :	00001111;
	28059 :	00001001;
	28058 :	00000011;
	28057 :	00001100;
	28056 :	11111110;
	28055 :	11110100;
	28054 :	11011100;
	28053 :	11001100;
	28052 :	11000110;
	28051 :	11100010;
	28050 :	00000000;
	28049 :	11011111;
	28048 :	11001001;
	28047 :	11001100;
	28046 :	11010001;
	28045 :	11111000;
	28044 :	11110011;
	28043 :	11111111;
	28042 :	00000010;
	28041 :	00000000;
	28040 :	00000000;
	28039 :	00000000;
	28038 :	11110001;
	28037 :	11101000;
	28036 :	11101101;
	28035 :	11110101;
	28034 :	00000111;
	28033 :	00001110;
	28032 :	00001100;
	28031 :	11110111;
	28030 :	11101100;
	28029 :	11100111;
	28028 :	11011010;
	28027 :	11011010;
	28026 :	11100001;
	28025 :	11101001;
	28024 :	11110100;
	28023 :	00001000;
	28022 :	00011111;
	28021 :	11111010;
	28020 :	11011100;
	28019 :	11010010;
	28018 :	11000110;
	28017 :	11101011;
	28016 :	11101101;
	28015 :	11111110;
	28014 :	00000001;
	28013 :	00000001;
	28012 :	00000000;
	28011 :	11111110;
	28010 :	11110001;
	28009 :	11100011;
	28008 :	11101111;
	28007 :	11111011;
	28006 :	00000010;
	28005 :	00001110;
	28004 :	00001001;
	28003 :	11111101;
	28002 :	11110110;
	28001 :	11101010;
	28000 :	11101110;
	27999 :	11111000;
	27998 :	00010001;
	27997 :	00010001;
	27996 :	00110000;
	27995 :	00111100;
	27994 :	00010011;
	27993 :	11111011;
	27992 :	11100000;
	27991 :	11000101;
	27990 :	11100001;
	27989 :	11101110;
	27988 :	11101100;
	27987 :	00000000;
	27986 :	00000010;
	27985 :	00000000;
	27984 :	00000000;
	27983 :	11111111;
	27982 :	11111001;
	27981 :	11101100;
	27980 :	11111010;
	27979 :	11111111;
	27978 :	00000110;
	27977 :	00000100;
	27976 :	00000110;
	27975 :	00000110;
	27974 :	11111110;
	27973 :	11111001;
	27972 :	11111100;
	27971 :	00011010;
	27970 :	00110100;
	27969 :	00111000;
	27968 :	00101100;
	27967 :	00010000;
	27966 :	00000111;
	27965 :	11100110;
	27964 :	11101010;
	27963 :	11010111;
	27962 :	11011101;
	27961 :	11101110;
	27960 :	11110001;
	27959 :	00000001;
	27958 :	00000001;
	27957 :	00000000;
	27956 :	00000000;
	27955 :	00000000;
	27954 :	11111010;
	27953 :	11110101;
	27952 :	11111011;
	27951 :	11110110;
	27950 :	11110101;
	27949 :	00000010;
	27948 :	00000111;
	27947 :	00001000;
	27946 :	00001001;
	27945 :	00011000;
	27944 :	00011000;
	27943 :	00101101;
	27942 :	00111010;
	27941 :	00111011;
	27940 :	00011001;
	27939 :	00001110;
	27938 :	11110110;
	27937 :	11101000;
	27936 :	11100010;
	27935 :	11011101;
	27934 :	11101010;
	27933 :	11110110;
	27932 :	11110010;
	27931 :	11111110;
	27930 :	00000001;
	27929 :	00000000;
	27928 :	00000000;
	27927 :	00000000;
	27926 :	11110101;
	27925 :	11101100;
	27924 :	11110001;
	27923 :	11111111;
	27922 :	00000010;
	27921 :	11110000;
	27920 :	11110100;
	27919 :	00000001;
	27918 :	00001010;
	27917 :	00010110;
	27916 :	00010100;
	27915 :	00101010;
	27914 :	00101110;
	27913 :	00101011;
	27912 :	00011000;
	27911 :	00000010;
	27910 :	00000010;
	27909 :	11100010;
	27908 :	11101000;
	27907 :	11101100;
	27906 :	11110101;
	27905 :	11111101;
	27904 :	11110110;
	27903 :	11111111;
	27902 :	00000000;
	27901 :	00000000;
	27900 :	00000000;
	27899 :	00000000;
	27898 :	11111011;
	27897 :	11110100;
	27896 :	11111001;
	27895 :	11111001;
	27894 :	00000100;
	27893 :	11110001;
	27892 :	11101010;
	27891 :	11110101;
	27890 :	00000000;
	27889 :	00000110;
	27888 :	00010100;
	27887 :	00011000;
	27886 :	00100110;
	27885 :	00011010;
	27884 :	00010110;
	27883 :	11111101;
	27882 :	11110010;
	27881 :	11101010;
	27880 :	11101111;
	27879 :	11110011;
	27878 :	11111111;
	27877 :	11111111;
	27876 :	11111100;
	27875 :	11111111;
	27874 :	00000000;
	27873 :	00000000;
	27872 :	00000000;
	27871 :	00000000;
	27870 :	11111110;
	27869 :	11111100;
	27868 :	11111011;
	27867 :	11111111;
	27866 :	11111100;
	27865 :	11110100;
	27864 :	11101110;
	27863 :	11110011;
	27862 :	11111111;
	27861 :	11111100;
	27860 :	00010000;
	27859 :	00011100;
	27858 :	00100000;
	27857 :	00011111;
	27856 :	00001011;
	27855 :	00000100;
	27854 :	11110111;
	27853 :	11110110;
	27852 :	00000001;
	27851 :	00000101;
	27850 :	00001001;
	27849 :	11111111;
	27848 :	11111101;
	27847 :	00000001;
	27846 :	00000000;
	27845 :	00000000;
	27844 :	00000000;
	27843 :	00000000;
	27842 :	11111110;
	27841 :	11111110;
	27840 :	00000000;
	27839 :	00000000;
	27838 :	11111110;
	27837 :	11110111;
	27836 :	11110010;
	27835 :	11110010;
	27834 :	11111010;
	27833 :	00000010;
	27832 :	00010011;
	27831 :	00100010;
	27830 :	00011000;
	27829 :	00001000;
	27828 :	11111001;
	27827 :	11110010;
	27826 :	11110000;
	27825 :	11111001;
	27824 :	00000001;
	27823 :	00000101;
	27822 :	00000100;
	27821 :	11111111;
	27820 :	11111111;
	27819 :	00000001;
	27818 :	00000000;
	27817 :	00000000;
	27816 :	00000000;
	27815 :	00000000;
	27814 :	11111111;
	27813 :	11111111;
	27812 :	11111111;
	27811 :	00000000;
	27810 :	11111110;
	27809 :	11111110;
	27808 :	11111001;
	27807 :	11110110;
	27806 :	11111110;
	27805 :	00000110;
	27804 :	00001111;
	27803 :	00011010;
	27802 :	00010010;
	27801 :	00001001;
	27800 :	11111010;
	27799 :	11111011;
	27798 :	11111111;
	27797 :	00000100;
	27796 :	00000100;
	27795 :	00000110;
	27794 :	00000010;
	27793 :	11111111;
	27792 :	00000000;
	27791 :	00000000;
	27790 :	00000000;
	27789 :	00000000;
	27788 :	00000000;
	27787 :	00000000;
	27786 :	00000000;
	27785 :	00000000;
	27784 :	00000000;
	27783 :	11111101;
	27782 :	11111101;
	27781 :	11111100;
	27780 :	11111001;
	27779 :	11110111;
	27778 :	11111001;
	27777 :	11111100;
	27776 :	11111100;
	27775 :	00000010;
